{
  "version": "1.0",
  "truncation": null,
  "padding": null,
  "added_tokens": [
    {
      "id": 0,
      "content": "<unk>",
      "single_word": false,
      "lstrip": false,
      "rstrip": false,
      "normalized": false,
      "special": true
    }
  ],
  "normalizer": null,
  "pre_tokenizer": {
    "type": "Whitespace"
  },
  "post_processor": null,
  "decoder": null,
  "model": {
    "type": "BPE",
    "dropout": null,
    "unk_token": "<unk>",
    "continuing_subword_prefix": null,
    "end_of_word_suffix": null,
    "fuse_unk": false,
    "byte_fallback": false,
    "ignore_merges": false,
    "vocab": {
      "<unk>": 0,
      "!": 1,
      "$": 2,
      "&": 3,
      "'": 4,
      ",": 5,
      "-": 6,
      ".": 7,
      "3": 8,
      ":": 9,
      ";": 10,
      "?": 11,
      "A": 12,
      "B": 13,
      "C": 14,
      "D": 15,
      "E": 16,
      "F": 17,
      "G": 18,
      "H": 19,
      "I": 20,
      "J": 21,
      "K": 22,
      "L": 23,
      "M": 24,
      "N": 25,
      "O": 26,
      "P": 27,
      "Q": 28,
      "R": 29,
      "S": 30,
      "T": 31,
      "U": 32,
      "V": 33,
      "W": 34,
      "X": 35,
      "Y": 36,
      "Z": 37,
      "a": 38,
      "b": 39,
      "c": 40,
      "d": 41,
      "e": 42,
      "f": 43,
      "g": 44,
      "h": 45,
      "i": 46,
      "j": 47,
      "k": 48,
      "l": 49,
      "m": 50,
      "n": 51,
      "o": 52,
      "p": 53,
      "q": 54,
      "r": 55,
      "s": 56,
      "t": 57,
      "u": 58,
      "v": 59,
      "w": 60,
      "x": 61,
      "y": 62,
      "z": 63,
      "th": 64,
      "ou": 65,
      "er": 66,
      "in": 67,
      "an": 68,
      "the": 69,
      "or": 70,
      "is": 71,
      "en": 72,
      "ar": 73,
      "at": 74,
      "on": 75,
      "st": 76,
      "ll": 77,
      "me": 78,
      "to": 79,
      "and": 80,
      "he": 81,
      "you": 82,
      "es": 83,
      "no": 84,
      "se": 85,
      "ha": 86,
      "re": 87,
      "of": 88,
      "ve": 89,
      "it": 90,
      "ing": 91,
      "be": 92,
      "le": 93,
      "wi": 94,
      "my": 95,
      "hi": 96,
      "ow": 97,
      "ce": 98,
      "for": 99,
      "ay": 100,
      "as": 101,
      "ch": 102,
      "nd": 103,
      "ere": 104,
      "ld": 105,
      "ir": 106,
      "ed": 107,
      "ut": 108,
      "ro": 109,
      "not": 110,
      "li": 111,
      "de": 112,
      "we": 113,
      "hat": 114,
      "that": 115,
      "gh": 116,
      "And": 117,
      "ke": 118,
      "oo": 119,
      "our": 120,
      "with": 121,
      "ome": 122,
      "ent": 123,
      "his": 124,
      "ri": 125,
      "your": 126,
      "thou": 127,
      "ther": 128,
      "ad": 129,
      "al": 130,
      "et": 131,
      "all": 132,
      "ght": 133,
      "EN": 134,
      "ur": 135,
      "us": 136,
      "have": 137,
      "him": 138,
      "IN": 139,
      "ly": 140,
      "so": 141,
      "ra": 142,
      "this": 143,
      "IO": 144,
      "ord": 145,
      "do": 146,
      "un": 147,
      "ho": 148,
      "ma": 149,
      "ess": 150,
      "pe": 151,
      "fe": 152,
      "AR": 153,
      "ould": 154,
      "are": 155,
      "lo": 156,
      "here": 157,
      "ood": 158,
      "id": 159,
      "thy": 160,
      "ver": 161,
      "fa": 162,
      "ck": 163,
      "one": 164,
      "man": 165,
      "ti": 166,
      "The": 167,
      "sha": 168,
      "now": 169,
      "am": 170,
      "will": 171,
      "ne": 172,
      "ge": 173,
      "ain": 174,
      "but": 175,
      "su": 176,
      "ard": 177,
      "her": 178,
      "US": 179,
      "ter": 180,
      "con": 181,
      "pr": 182,
      "Th": 183,
      "To": 184,
      "end": 185,
      "by": 186,
      "thee": 187,
      "ue": 188,
      "om": 189,
      "la": 190,
      "shall": 191,
      "art": 192,
      "mor": 193,
      "up": 194,
      "UC": 195,
      "sh": 196,
      "come": 197,
      "po": 198,
      "ING": 199,
      "rom": 200,
      "own": 201,
      "AN": 202,
      "ust": 203,
      "That": 204,
      "ta": 205,
      "tr": 206,
      "what": 207,
      "ER": 208,
      "OR": 209,
      "ous": 210,
      "mo": 211,
      "sel": 212,
      "ET": 213,
      "te": 214,
      "ES": 215,
      "go": 216,
      "good": 217,
      "if": 218,
      "ill": 219,
      "But": 220,
      "ine": 221,
      "ath": 222,
      "hen": 223,
      "ble": 224,
      "ight": 225,
      "lord": 226,
      "ion": 227,
      "hich": 228,
      "king": 229,
      "What": 230,
      "was": 231,
      "bo": 232,
      "il": 233,
      "ant": 234,
      "KING": 235,
      "ven": 236,
      "she": 237,
      "ca": 238,
      "ul": 239,
      "from": 240,
      "bl": 241,
      "ong": 242,
      "more": 243,
      "For": 244,
      "well": 245,
      "sa": 246,
      "them": 247,
      "IC": 248,
      "ak": 249,
      "sir": 250,
      "self": 251,
      "ind": 252,
      "would": 253,
      "there": 254,
      "wor": 255,
      "love": 256,
      "can": 257,
      "know": 258,
      "per": 259,
      "ct": 260,
      "out": 261,
      "ive": 262,
      "EL": 263,
      "ate": 264,
      "com": 265,
      "say": 266,
      "then": 267,
      "see": 268,
      "IUS": 269,
      "let": 270,
      "ARD": 271,
      "their": 272,
      "My": 273,
      "di": 274,
      "than": 275,
      "ci": 276,
      "ry": 277,
      "--": 278,
      "they": 279,
      "fore": 280,
      "ence": 281,
      "ag": 282,
      "ep": 283,
      "ear": 284,
      "like": 285,
      "spe": 286,
      "Go": 287,
      "ers": 288,
      "hy": 289,
      "may": 290,
      "LO": 291,
      "bro": 292,
      "um": 293,
      "were": 294,
      "way": 295,
      "As": 296,
      "pro": 297,
      "ast": 298,
      "We": 299,
      "ves": 300,
      "ish": 301,
      "ink": 302,
      "KE": 303,
      "time": 304,
      "hath": 305,
      "II": 306,
      "qu": 307,
      "No": 308,
      "ure": 309,
      "irst": 310,
      "He": 311,
      "make": 312,
      "ol": 313,
      "ple": 314,
      "You": 315,
      "who": 316,
      "thing": 317,
      "row": 318,
      "must": 319,
      "gra": 320,
      "ound": 321,
      "ith": 322,
      "ap": 323,
      "ave": 324,
      "some": 325,
      "ook": 326,
      "should": 327,
      "OL": 328,
      "father": 329,
      "fi": 330,
      "LA": 331,
      "RO": 332,
      "TIO": 333,
      "use": 334,
      "ity": 335,
      "too": 336,
      "had": 337,
      "upon": 338,
      "son": 339,
      "did": 340,
      "CA": 341,
      "day": 342,
      "ig": 343,
      "ance": 344,
      "ward": 345,
      "ON": 346,
      "dis": 347,
      "how": 348,
      "wo": 349,
      "which": 350,
      "death": 351,
      "oun": 352,
      "reat": 353,
      "IS": 354,
      "word": 355,
      "fri": 356,
      "If": 357,
      "sp": 358,
      "when": 359,
      "est": 360,
      "men": 361,
      "speak": 362,
      "entle": 363,
      "In": 364,
      "heart": 365,
      "ICH": 366,
      "again": 367,
      "RICH": 368,
      "ful": 369,
      "vi": 370,
      "DU": 371,
      "DUKE": 372,
      "hand": 373,
      "yet": 374,
      "old": 375,
      "mar": 376,
      "el": 377,
      "Thou": 378,
      "UL": 379,
      "mine": 380,
      "very": 381,
      "think": 382,
      "RICHARD": 383,
      "ENTIO": 384,
      "take": 385,
      "Which": 386,
      "pl": 387,
      "si": 388,
      "swe": 389,
      "ac": 390,
      "God": 391,
      "hear": 392,
      "Be": 393,
      "With": 394,
      "ince": 395,
      "INC": 396,
      "str": 397,
      "ign": 398,
      "Why": 399,
      "give": 400,
      "Of": 401,
      "na": 402,
      "such": 403,
      "First": 404,
      "land": 405,
      "ang": 406,
      "AB": 407,
      "ness": 408,
      "uch": 409,
      "most": 410,
      "blood": 411,
      "des": 412,
      "ex": 413,
      "ster": 414,
      "brother": 415,
      "br": 416,
      "these": 417,
      "hea": 418,
      "tell": 419,
      "tis": 420,
      "any": 421,
      "ba": 422,
      "ey": 423,
      "UE": 424,
      "ise": 425,
      "onour": 426,
      "bre": 427,
      "other": 428,
      "im": 429,
      "where": 430,
      "How": 431,
      "que": 432,
      "llow": 433,
      "Come": 434,
      "less": 435,
      "ty": 436,
      "arm": 437,
      "life": 438,
      "This": 439,
      "TER": 440,
      "coun": 441,
      "look": 442,
      "new": 443,
      "So": 444,
      "ort": 445,
      "UCH": 446,
      "Who": 447,
      "friend": 448,
      "gentle": 449,
      "oul": 450,
      "GLO": 451,
      "ught": 452,
      "vo": 453,
      "UCES": 454,
      "GLOUCES": 455,
      "GLOUCESTER": 456,
      "chi": 457,
      "ars": 458,
      "af": 459,
      "mis": 460,
      "ving": 461,
      "hast": 462,
      "ady": 463,
      "Lord": 464,
      "ab": 465,
      "urse": 466,
      "ts": 467,
      "Rome": 468,
      "RY": 469,
      "night": 470,
      "rown": 471,
      "off": 472,
      "fair": 473,
      "made": 474,
      "age": 475,
      "LE": 476,
      "QUE": 477,
      "VINC": 478,
      "QUEEN": 479,
      "VINCENTIO": 480,
      "honour": 481,
      "OF": 482,
      "Se": 483,
      "much": 484,
      "ans": 485,
      "tion": 486,
      "ond": 487,
      "Is": 488,
      "Where": 489,
      "lie": 490,
      "urn": 491,
      "UM": 492,
      "LAN": 493,
      "stand": 494,
      "Mar": 495,
      "pre": 496,
      "HEN": 497,
      "cond": 498,
      "Now": 499,
      "che": 500,
      "name": 501,
      "tle": 502,
      "em": 503,
      "ef": 504,
      "HENRY": 505,
      "ng": 506,
      "ber": 507,
      "part": 508,
      "never": 509,
      "fear": 510,
      "io": 511,
      "Your": 512,
      "ces": 513,
      "ies": 514,
      "lt": 515,
      "live": 516,
      "ower": 517,
      "jo": 518,
      "ser": 519,
      "uke": 520,
      "It": 521,
      "call": 522,
      "great": 523,
      "ass": 524,
      "YOR": 525,
      "fo": 526,
      "head": 527,
      "YORK": 528,
      "ree": 529,
      "ment": 530,
      "und": 531,
      "Or": 532,
      "ation": 533,
      "INIUS": 534,
      "ever": 535,
      "pray": 536,
      "cannot": 537,
      "red": 538,
      "true": 539,
      "heaven": 540,
      "PET": 541,
      "ase": 542,
      "noble": 543,
      "fl": 544,
      "pa": 545,
      "been": 546,
      "sweet": 547,
      "fort": 548,
      "An": 549,
      "DW": 550,
      "EDW": 551,
      "co": 552,
      "EDWARD": 553,
      "GR": 554,
      "done": 555,
      "mer": 556,
      "bet": 557,
      ",--": 558,
      "TH": 559,
      "doth": 560,
      "iz": 561,
      "nor": 562,
      "ough": 563,
      "LUC": 564,
      "MEN": 565,
      "pt": 566,
      "res": 567,
      "Ay": 568,
      "da": 569,
      "pp": 570,
      "ull": 571,
      "war": 572,
      "ouse": 573,
      "There": 574,
      "ie": 575,
      "comm": 576,
      "gr": 577,
      "int": 578,
      "When": 579,
      "rest": 580,
      "Ed": 581,
      "wr": 582,
      "bear": 583,
      "ME": 584,
      "UT": 585,
      "grace": 586,
      "soul": 587,
      "before": 588,
      "ROME": 589,
      "Edward": 590,
      "ROMEO": 591,
      "By": 592,
      "sc": 593,
      "ss": 594,
      "ENIUS": 595,
      "both": 596,
      "world": 597,
      "MENENIUS": 598,
      "Ri": 599,
      "queen": 600,
      "ace": 601,
      "Here": 602,
      "Let": 603,
      "Then": 604,
      "comes": 605,
      "ughter": 606,
      "RUCH": 607,
      "down": 608,
      "pri": 609,
      "orn": 610,
      "dead": 611,
      "PETRUCH": 612,
      "PETRUCHIO": 613,
      "OM": 614,
      "ings": 615,
      "TES": 616,
      "long": 617,
      "ved": 618,
      "ite": 619,
      "pres": 620,
      "ake": 621,
      "ice": 622,
      "being": 623,
      "wick": 624,
      "Than": 625,
      "ru": 626,
      "leave": 627,
      "myself": 628,
      "hold": 629,
      "mother": 630,
      "Cl": 631,
      "HA": 632,
      "MAR": 633,
      "ore": 634,
      "set": 635,
      "cour": 636,
      "house": 637,
      "put": 638,
      "thus": 639,
      "cause": 640,
      "COR": 641,
      "IZ": 642,
      "op": 643,
      "ret": 644,
      "IOLAN": 645,
      "CORIOLAN": 646,
      "CORIOLANUS": 647,
      "Nor": 648,
      "tri": 649,
      "wife": 650,
      "Second": 651,
      "der": 652,
      "uck": 653,
      "whi": 654,
      "beg": 655,
      "eyes": 656,
      "deed": 657,
      "thought": 658,
      "BA": 659,
      "cl": 660,
      "Rich": 661,
      "dy": 662,
      "child": 663,
      "INA": 664,
      "poor": 665,
      "Do": 666,
      "She": 667,
      "itiz": 668,
      "die": 669,
      "itizen": 670,
      "foo": 671,
      "tra": 672,
      "led": 673,
      "away": 674,
      "IV": 675,
      "right": 676,
      "friends": 677,
      "ds": 678,
      "III": 679,
      "Sir": 680,
      "might": 681,
      "crown": 682,
      "ks": 683,
      "pla": 684,
      "atch": 685,
      "atter": 686,
      "stay": 687,
      "light": 688,
      "bid": 689,
      "ten": 690,
      "many": 691,
      "War": 692,
      "ft": 693,
      "ins": 694,
      "Warwick": 695,
      "ach": 696,
      "gri": 697,
      "lit": 698,
      "His": 699,
      "tre": 700,
      "Tis": 701,
      "ps": 702,
      "ison": 703,
      "pose": 704,
      "ELLA": 705,
      "cious": 706,
      "ISAB": 707,
      "ISABELLA": 708,
      "mi": 709,
      "ange": 710,
      "nothing": 711,
      "Romeo": 712,
      "daughter": 713,
      "RAN": 714,
      "bra": 715,
      "gone": 716,
      "kind": 717,
      "tal": 718,
      "tong": 719,
      "face": 720,
      "Well": 721,
      "mad": 722,
      "better": 723,
      "IET": 724,
      "JUL": 725,
      "kes": 726,
      "ose": 727,
      "par": 728,
      "ford": 729,
      "till": 730,
      "ONTES": 731,
      "LEONTES": 732,
      "JULIET": 733,
      "Nay": 734,
      "VI": 735,
      "gu": 736,
      "eng": 737,
      "though": 738,
      "prince": 739,
      "words": 740,
      "IL": 741,
      "ted": 742,
      "DY": 743,
      "able": 744,
      "ors": 745,
      "une": 746,
      "ears": 747,
      "LADY": 748,
      "CE": 749,
      "ST": 750,
      "VOL": 751,
      "wer": 752,
      "ENCE": 753,
      "show": 754,
      "BR": 755,
      "TA": 756,
      "ban": 757,
      "ither": 758,
      "tend": 759,
      "news": 760,
      "CL": 761,
      "Citizen": 762,
      "Ser": 763,
      "ic": 764,
      "sent": 765,
      "best": 766,
      "urder": 767,
      "against": 768,
      "Pro": 769,
      "those": 770,
      "joy": 771,
      "SIC": 772,
      "band": 773,
      "hour": 774,
      "sle": 775,
      "hence": 776,
      "lords": 777,
      "little": 778,
      "SICINIUS": 779,
      "far": 780,
      "tent": 781,
      "Sha": 782,
      "cy": 783,
      "ction": 784,
      "ardon": 785,
      "Un": 786,
      "pur": 787,
      "keep": 788,
      "tain": 789,
      "two": 790,
      "still": 791,
      "hel": 792,
      "char": 793,
      "dear": 794,
      "law": 795,
      "GRE": 796,
      "den": 797,
      "power": 798,
      "mean": 799,
      "forth": 800,
      "roy": 801,
      "himself": 802,
      "Not": 803,
      "full": 804,
      "Thy": 805,
      "back": 806,
      "LUCIO": 807,
      "its": 808,
      "unto": 809,
      "sub": 810,
      "Richard": 811,
      "Have": 812,
      "ech": 813,
      "peace": 814,
      "therefore": 815,
      "Will": 816,
      "bes": 817,
      "first": 818,
      "ren": 819,
      "iness": 820,
      "else": 821,
      "tongue": 822,
      "Yor": 823,
      "could": 824,
      "duke": 825,
      "high": 826,
      "ason": 827,
      "ried": 828,
      "hope": 829,
      "cut": 830,
      "hus": 831,
      "ought": 832,
      "ark": 833,
      "need": 834,
      "conf": 835,
      "find": 836,
      "lady": 837,
      "nat": 838,
      "thine": 839,
      "young": 840,
      "ETH": 841,
      "ELIZ": 842,
      "earth": 843,
      "ABETH": 844,
      "under": 845,
      "York": 846,
      "ELIZABETH": 847,
      "Good": 848,
      "cha": 849,
      "dre": 850,
      "thr": 851,
      "came": 852,
      "IAN": 853,
      "get": 854,
      "home": 855,
      "je": 856,
      "just": 857,
      "mind": 858,
      "ople": 859,
      "ran": 860,
      "master": 861,
      "Hen": 862,
      "Yet": 863,
      "once": 864,
      "people": 865,
      "husband": 866,
      "Henry": 867,
      "IA": 868,
      "pass": 869,
      "arewell": 870,
      "seem": 871,
      "place": 872,
      "PER": 873,
      "lay": 874,
      "sor": 875,
      "happ": 876,
      "qui": 877,
      "after": 878,
      "All": 879,
      "WAR": 880,
      "WIC": 881,
      "cle": 882,
      "fall": 883,
      "ste": 884,
      "Shall": 885,
      "WARWIC": 886,
      "WARWICK": 887,
      "vant": 888,
      "why": 889,
      "ister": 890,
      "bed": 891,
      "wel": 892,
      "fellow": 893,
      "follow": 894,
      "Nurse": 895,
      "last": 896,
      "none": 897,
      "They": 898,
      "please": 899,
      "HAM": 900,
      "PUL": 901,
      "dr": 902,
      "gi": 903,
      "hor": 904,
      "pardon": 905,
      "rep": 906,
      "hither": 907,
      "morrow": 908,
      "tru": 909,
      "said": 910,
      "CAPUL": 911,
      "CAPULET": 912,
      "bu": 913,
      "dou": 914,
      "every": 915,
      "gl": 916,
      "oud": 917,
      "hands": 918,
      "bring": 919,
      "MIO": 920,
      "gue": 921,
      "kill": 922,
      "pat": 923,
      "ousin": 924,
      "boy": 925,
      "woman": 926,
      "shi": 927,
      "shame": 928,
      "try": 929,
      "BUC": 930,
      "cent": 931,
      "mber": 932,
      "heard": 933,
      "tem": 934,
      "KINGHAM": 935,
      "UTUS": 936,
      "BRUTUS": 937,
      "BUCKINGHAM": 938,
      "BOL": 939,
      "BRO": 940,
      "From": 941,
      "TRAN": 942,
      "bus": 943,
      "clo": 944,
      "dra": 945,
      "ff": 946,
      "ius": 947,
      "jest": 948,
      "ates": 949,
      "INGBRO": 950,
      "ESS": 951,
      "LAU": 952,
      "BOLINGBRO": 953,
      "TRANIO": 954,
      "BOLINGBROKE": 955,
      "MIL": 956,
      "car": 957,
      "sand": 958,
      "uty": 959,
      "tears": 960,
      "whose": 961,
      "vost": 962,
      "present": 963,
      "Our": 964,
      "TIS": 965,
      "bri": 966,
      "ken": 967,
      "vy": 968,
      "maid": 969,
      "comp": 970,
      "royal": 971,
      "cer": 972,
      "cur": 973,
      "cess": 974,
      "sen": 975,
      "since": 976,
      "wit": 977,
      "state": 978,
      "lack": 979,
      "wrong": 980,
      "GAR": 981,
      "King": 982,
      "NE": 983,
      "fal": 984,
      "gar": 985,
      "meet": 986,
      "MARGAR": 987,
      "sorrow": 988,
      "MARGARET": 989,
      "ATH": 990,
      "gain": 991,
      "sun": 992,
      "prison": 993,
      "eye": 994,
      "On": 995,
      "vir": 996,
      "whom": 997,
      "CAL": 998,
      "while": 999,
      "help": 1000,
      "Bo": 1001,
      "GEL": 1002,
      "HOR": 1003,
      "gen": 1004,
      "les": 1005,
      "ning": 1006,
      "pi": 1007,
      "ting": 1008,
      "vere": 1009,
      "xt": 1010,
      "reme": 1011,
      "ition": 1012,
      "thousand": 1013,
      "ANGEL": 1014,
      "tress": 1015,
      "ORD": 1016,
      "selves": 1017,
      "gracious": 1018,
      "about": 1019,
      "answer": 1020,
      "Clar": 1021,
      "ANGELO": 1022,
      "CU": 1023,
      "Eng": 1024,
      "gre": 1025,
      "vil": 1026,
      "iss": 1027,
      "lies": 1028,
      "weep": 1029,
      "ARINA": 1030,
      "fool": 1031,
      "Clarence": 1032,
      "KATH": 1033,
      "mon": 1034,
      "wn": 1035,
      "ceive": 1036,
      "cius": 1037,
      "KATHARINA": 1038,
      "St": 1039,
      "over": 1040,
      "into": 1041,
      "vice": 1042,
      "gentleman": 1043,
      "Marcius": 1044,
      "cousin": 1045,
      "ged": 1046,
      "pet": 1047,
      "stri": 1048,
      "asure": 1049,
      "body": 1050,
      "Up": 1051,
      "turn": 1052,
      "ory": 1053,
      "sed": 1054,
      "ready": 1055,
      "form": 1056,
      "hate": 1057,
      "makes": 1058,
      "ESCAL": 1059,
      "spir": 1060,
      "grief": 1061,
      "ESCALUS": 1062,
      "Her": 1063,
      "Pr": 1064,
      "bt": 1065,
      "eld": 1066,
      "ud": 1067,
      "content": 1068,
      "anger": 1069,
      "ject": 1070,
      "Hath": 1071,
      "dost": 1072,
      "broke": 1073,
      "prove": 1074,
      "fortune": 1075,
      "AU": 1076,
      "DUCH": 1077,
      "Duke": 1078,
      "cra": 1079,
      "dow": 1080,
      "sl": 1081,
      "vill": 1082,
      "ery": 1083,
      "ary": 1084,
      "wilt": 1085,
      "DUCHESS": 1086,
      "pher": 1087,
      "rant": 1088,
      "itor": 1089,
      "unt": 1090,
      "pos": 1091,
      "ROS": 1092,
      "play": 1093,
      "Ange": 1094,
      "sleep": 1095,
      "kne": 1096,
      "sound": 1097,
      "anca": 1098,
      "faul": 1099,
      "thank": 1100,
      "times": 1101,
      "swear": 1102,
      "arms": 1103,
      "urderer": 1104,
      "Angelo": 1105,
      "eech": 1106,
      "ost": 1107,
      "wa": 1108,
      "indeed": 1109,
      "another": 1110,
      "ised": 1111,
      "grave": 1112,
      "CAMIL": 1113,
      "acc": 1114,
      "false": 1115,
      "CAMILLO": 1116,
      "Even": 1117,
      "Would": 1118,
      "bal": 1119,
      "even": 1120,
      "matter": 1121,
      "has": 1122,
      "comfort": 1123,
      "talk": 1124,
      "Provost": 1125,
      "happy": 1126,
      "pati": 1127,
      "Ty": 1128,
      "TEN": 1129,
      "fight": 1130,
      "med": 1131,
      "reason": 1132,
      "aint": 1133,
      "sure": 1134,
      "HORTEN": 1135,
      "vereign": 1136,
      "HORTENS": 1137,
      "FR": 1138,
      "IAR": 1139,
      "cor": 1140,
      "vent": 1141,
      "ouch": 1142,
      "only": 1143,
      "stra": 1144,
      "offi": 1145,
      "sovereign": 1146,
      "country": 1147,
      "banish": 1148,
      "Upon": 1149,
      "HORTENSIO": 1150,
      "FRIAR": 1151,
      ",'": 1152,
      "Are": 1153,
      "PTIS": 1154,
      "Thi": 1155,
      "care": 1156,
      "min": 1157,
      "send": 1158,
      "va": 1159,
      "wish": 1160,
      "years": 1161,
      "rather": 1162,
      "lieve": 1163,
      "BAPTIS": 1164,
      "truth": 1165,
      "virt": 1166,
      "BAPTISTA": 1167,
      "AUT": 1168,
      "CUS": 1169,
      "COM": 1170,
      "More": 1171,
      "YCUS": 1172,
      "bit": 1173,
      "ire": 1174,
      "sla": 1175,
      "reven": 1176,
      "onest": 1177,
      "got": 1178,
      "OLYCUS": 1179,
      "business": 1180,
      "AUTOLYCUS": 1181,
      "COMINIUS": 1182,
      ".'": 1183,
      "At": 1184,
      "EY": 1185,
      "hang": 1186,
      "ious": 1187,
      "rd": 1188,
      "spo": 1189,
      "wom": 1190,
      "want": 1191,
      "ene": 1192,
      "ARENCE": 1193,
      "shalt": 1194,
      "deser": 1195,
      "CLARENCE": 1196,
      "Third": 1197,
      "wind": 1198,
      "ye": 1199,
      "arn": 1200,
      "sea": 1201,
      "ury": 1202,
      "breath": 1203,
      "ield": 1204,
      "command": 1205,
      "dream": 1206,
      "pherd": 1207,
      "BEN": 1208,
      "Gentle": 1209,
      "NOR": 1210,
      "Sh": 1211,
      "Take": 1212,
      "prom": 1213,
      "three": 1214,
      "holy": 1215,
      "fect": 1216,
      "lau": 1217,
      "common": 1218,
      "Clown": 1219,
      "VOLIO": 1220,
      "BENVOLIO": 1221,
      "MER": 1222,
      "PA": 1223,
      "PROS": 1224,
      "Te": 1225,
      "igh": 1226,
      "pity": 1227,
      "tw": 1228,
      "enough": 1229,
      "sold": 1230,
      "UMIO": 1231,
      "GRUMIO": 1232,
      "PERO": 1233,
      "welcome": 1234,
      "horse": 1235,
      "doubt": 1236,
      "PROSPERO": 1237,
      "Kate": 1238,
      "Murderer": 1239,
      "air": 1240,
      "hum": 1241,
      "ator": 1242,
      "read": 1243,
      "bea": 1244,
      "lives": 1245,
      "pect": 1246,
      "CUTIO": 1247,
      "villain": 1248,
      "MERCUTIO": 1249,
      "Ju": 1250,
      "Li": 1251,
      "Were": 1252,
      "born": 1253,
      "free": 1254,
      "kiss": 1255,
      "late": 1256,
      "anta": 1257,
      "ask": 1258,
      "within": 1259,
      "gods": 1260,
      "worn": 1261,
      "LUCENTIO": 1262,
      "madam": 1263,
      "Servant": 1264,
      "nature": 1265,
      "Al": 1266,
      "POM": 1267,
      "cre": 1268,
      "city": 1269,
      "sister": 1270,
      "force": 1271,
      "ours": 1272,
      "things": 1273,
      "quest": 1274,
      "mistress": 1275,
      "LAND": 1276,
      "POMP": 1277,
      "Give": 1278,
      "Ro": 1279,
      "Was": 1280,
      "foul": 1281,
      "oath": 1282,
      "wound": 1283,
      "yield": 1284,
      "means": 1285,
      "ents": 1286,
      "enter": 1287,
      "proud": 1288,
      "saw": 1289,
      "fire": 1290,
      "ULINA": 1291,
      "subject": 1292,
      "beseech": 1293,
      "PAULINA": 1294,
      "Con": 1295,
      "Say": 1296,
      "ms": 1297,
      "seen": 1298,
      "rel": 1299,
      "oft": 1300,
      "deli": 1301,
      "yours": 1302,
      "faith": 1303,
      "gether": 1304,
      "appe": 1305,
      "onder": 1306,
      "GREMIO": 1307,
      "gainst": 1308,
      "POMPEY": 1309,
      "IX": 1310,
      "Look": 1311,
      "NIA": 1312,
      "POL": 1313,
      "cla": 1314,
      "gro": 1315,
      "honest": 1316,
      "ier": 1317,
      "pain": 1318,
      "sm": 1319,
      "win": 1320,
      "dem": 1321,
      "yourself": 1322,
      "ENES": 1323,
      "vers": 1324,
      "ANT": 1325,
      "trust": 1326,
      "bles": 1327,
      "plain": 1328,
      "bloody": 1329,
      "looks": 1330,
      "UMNIA": 1331,
      "court": 1332,
      "VOLUMNIA": 1333,
      "gener": 1334,
      "England": 1335,
      "Tybal": 1336,
      "IXENES": 1337,
      "POLIXENES": 1338,
      "BER": 1339,
      "GON": 1340,
      "Some": 1341,
      "ior": 1342,
      "vis": 1343,
      "beat": 1344,
      "uncle": 1345,
      "INGS": 1346,
      "break": 1347,
      "vingman": 1348,
      "haste": 1349,
      "HAST": 1350,
      "traitor": 1351,
      "enger": 1352,
      "Servingman": 1353,
      "ship": 1354,
      "centio": 1355,
      "Tybalt": 1356,
      "HASTINGS": 1357,
      "Can": 1358,
      "Did": 1359,
      "Hast": 1360,
      "May": 1361,
      "RENCE": 1362,
      "bat": 1363,
      "sin": 1364,
      "sit": 1365,
      "together": 1366,
      "hal": 1367,
      "change": 1368,
      "unes": 1369,
      "majest": 1370,
      "point": 1371,
      "person": 1372,
      "days": 1373,
      "thinks": 1374,
      "children": 1375,
      "tender": 1376,
      "LAURENCE": 1377,
      "Ah": 1378,
      "BY": 1379,
      "Pet": 1380,
      "danger": 1381,
      "ga": 1382,
      "lam": 1383,
      "sight": 1384,
      "sword": 1385,
      "wis": 1386,
      "wat": 1387,
      "told": 1388,
      "left": 1389,
      "ows": 1390,
      "wear": 1391,
      "adv": 1392,
      "cks": 1393,
      "woe": 1394,
      "mercy": 1395,
      "warrant": 1396,
      "Therefore": 1397,
      "foot": 1398,
      "Juli": 1399,
      "majesty": 1400,
      "FF": 1401,
      "IFF": 1402,
      "farewell": 1403,
      "ling": 1404,
      "ze": 1405,
      "ones": 1406,
      "ute": 1407,
      "lif": 1408,
      "dest": 1409,
      "save": 1410,
      "UMBER": 1411,
      "THUMBER": 1412,
      "CLIFF": 1413,
      "report": 1414,
      "NORTHUMBER": 1415,
      "NORTHUMBERLAND": 1416,
      "ID": 1417,
      "Lu": 1418,
      "Mon": 1419,
      "cold": 1420,
      "rance": 1421,
      "sing": 1422,
      "sad": 1423,
      "ush": 1424,
      "does": 1425,
      "gold": 1426,
      "worthy": 1427,
      "known": 1428,
      "marry": 1429,
      "Though": 1430,
      "ches": 1431,
      "return": 1432,
      "justice": 1433,
      "draw": 1434,
      "Tell": 1435,
      "half": 1436,
      "Cor": 1437,
      "Com": 1438,
      "grow": 1439,
      "hard": 1440,
      "ner": 1441,
      "nurse": 1442,
      "run": 1443,
      "ist": 1444,
      "believe": 1445,
      "without": 1446,
      "soon": 1447,
      "sue": 1448,
      "ters": 1449,
      "ANNE": 1450,
      "heavy": 1451,
      "purpose": 1452,
      "through": 1453,
      "Clif": 1454,
      "Had": 1455,
      "Le": 1456,
      "PR": 1457,
      "Sign": 1458,
      "Whi": 1459,
      "athe": 1460,
      "fly": 1461,
      "ily": 1462,
      "sil": 1463,
      "heir": 1464,
      "lost": 1465,
      "pluck": 1466,
      "INCE": 1467,
      "strange": 1468,
      "Juliet": 1469,
      "PRINCE": 1470,
      "Bol": 1471,
      "Gre": 1472,
      "cry": 1473,
      "curse": 1474,
      "fit": 1475,
      "found": 1476,
      "obe": 1477,
      "pen": 1478,
      "past": 1479,
      "ingbroke": 1480,
      "bel": 1481,
      "ceed": 1482,
      "enty": 1483,
      "loss": 1484,
      "thyself": 1485,
      "near": 1486,
      "cons": 1487,
      "says": 1488,
      "liege": 1489,
      "charge": 1490,
      "spirit": 1491,
      "Clifford": 1492,
      "Signior": 1493,
      "Bolingbroke": 1494,
      "Away": 1495,
      "Cam": 1496,
      "Farewell": 1497,
      "Me": 1498,
      "One": 1499,
      "Re": 1500,
      "fet": 1501,
      "ide": 1502,
      "sworn": 1503,
      "tit": 1504,
      "tro": 1505,
      "wall": 1506,
      "outh": 1507,
      "hed": 1508,
      "ham": 1509,
      "dom": 1510,
      "strong": 1511,
      "Whose": 1512,
      "pair": 1513,
      "ground": 1514,
      "Should": 1515,
      "ALO": 1516,
      "Ca": 1517,
      "gs": 1518,
      "ices": 1519,
      "woo": 1520,
      "wise": 1521,
      "ina": 1522,
      "instr": 1523,
      "deep": 1524,
      "devil": 1525,
      "entreat": 1526,
      "fast": 1527,
      "bold": 1528,
      "aster": 1529,
      "used": 1530,
      "friar": 1531,
      "married": 1532,
      "service": 1533,
      "ength": 1534,
      "Pray": 1535,
      "claim": 1536,
      "Monta": 1537,
      "France": 1538,
      "Gl": 1539,
      "Sen": 1540,
      "ather": 1541,
      "dare": 1542,
      "ench": 1543,
      "toward": 1544,
      "def": 1545,
      "ides": 1546,
      "sup": 1547,
      "quar": 1548,
      "thoughts": 1549,
      "quick": 1550,
      "remember": 1551,
      "slain": 1552,
      "fault": 1553,
      "straight": 1554,
      "Like": 1555,
      "FL": 1556,
      "FID": 1557,
      "Jo": 1558,
      "Mess": 1559,
      "cr": 1560,
      "cal": 1561,
      "ecut": 1562,
      "fol": 1563,
      "ob": 1564,
      "ph": 1565,
      "touch": 1566,
      "ats": 1567,
      "learn": 1568,
      "choo": 1569,
      "alone": 1570,
      "lose": 1571,
      "These": 1572,
      "suit": 1573,
      "press": 1574,
      "ends": 1575,
      "ORIZ": 1576,
      "same": 1577,
      "worth": 1578,
      "loved": 1579,
      "mark": 1580,
      "course": 1581,
      "open": 1582,
      "AUFID": 1583,
      "enemy": 1584,
      "beauty": 1585,
      "general": 1586,
      "FLORIZ": 1587,
      "Messenger": 1588,
      "AUFIDIUS": 1589,
      "FLORIZEL": 1590,
      "Clau": 1591,
      "SE": 1592,
      "act": 1593,
      "bir": 1594,
      "bour": 1595,
      "cro": 1596,
      "fur": 1597,
      "ied": 1598,
      "widow": 1599,
      "ION": 1600,
      "prof": 1601,
      "dio": 1602,
      "side": 1603,
      "execut": 1604,
      "brought": 1605,
      "See": 1606,
      "grant": 1607,
      "hours": 1608,
      "revenge": 1609,
      "twenty": 1610,
      "Claudio": 1611,
      "!'": 1612,
      "Ha": 1613,
      "Mad": 1614,
      "bow": 1615,
      "duty": 1616,
      "jud": 1617,
      "ses": 1618,
      "youth": 1619,
      "rew": 1620,
      "itself": 1621,
      "rich": 1622,
      "som": 1623,
      "feel": 1624,
      "consu": 1625,
      "ERS": 1626,
      "move": 1627,
      "mock": 1628,
      "work": 1629,
      "canst": 1630,
      "knows": 1631,
      "speed": 1632,
      "umber": 1633,
      "confess": 1634,
      "Gentleman": 1635,
      "Senator": 1636,
      "Madam": 1637,
      "Against": 1638,
      "CIUS": 1639,
      "Cap": 1640,
      "De": 1641,
      "Master": 1642,
      "bs": 1643,
      "bound": 1644,
      "dam": 1645,
      "ped": 1646,
      "ua": 1647,
      "val": 1648,
      "ouce": 1649,
      "lead": 1650,
      "cho": 1651,
      "riage": 1652,
      "order": 1653,
      "illo": 1654,
      "ils": 1655,
      "sake": 1656,
      "pleasure": 1657,
      "field": 1658,
      "desire": 1659,
      "counter": 1660,
      "stands": 1661,
      "ched": 1662,
      "serve": 1663,
      "resol": 1664,
      "MARCIUS": 1665,
      "BAST": 1666,
      "Shepherd": 1667,
      "company": 1668,
      "women": 1669,
      "Montague": 1670,
      "Glouce": 1671,
      "SEBAST": 1672,
      "SEBASTIAN": 1673,
      "MON": 1674,
      "OW": 1675,
      "burn": 1676,
      "dish": 1677,
      "either": 1678,
      "ges": 1679,
      "harm": 1680,
      "mus": 1681,
      "murder": 1682,
      "met": 1683,
      "hes": 1684,
      "hell": 1685,
      "ingham": 1686,
      "behold": 1687,
      "chance": 1688,
      "fection": 1689,
      "Thus": 1690,
      "hearts": 1691,
      "counsel": 1692,
      "fearful": 1693,
      "Camillo": 1694,
      "Buck": 1695,
      "BION": 1696,
      "DEL": 1697,
      "Till": 1698,
      "Vol": 1699,
      "au": 1700,
      "dro": 1701,
      "each": 1702,
      "fer": 1703,
      "ici": 1704,
      "sat": 1705,
      "sur": 1706,
      "vour": 1707,
      "wret": 1708,
      "bell": 1709,
      "hot": 1710,
      "loving": 1711,
      "suc": 1712,
      "short": 1713,
      "tale": 1714,
      "test": 1715,
      "marriage": 1716,
      "strike": 1717,
      "Hastings": 1718,
      "Gloucester": 1719,
      "Buckingham": 1720,
      "BIONDEL": 1721,
      "BIONDELLO": 1722,
      "Au": 1723,
      "Ch": 1724,
      "cri": 1725,
      "du": 1726,
      "fid": 1727,
      "mit": 1728,
      "pie": 1729,
      "sign": 1730,
      "won": 1731,
      "wonder": 1732,
      "attend": 1733,
      "sto": 1734,
      "stu": 1735,
      "ash": 1736,
      "ween": 1737,
      "withal": 1738,
      "rah": 1739,
      "cast": 1740,
      "safe": 1741,
      "something": 1742,
      "sick": 1743,
      "voices": 1744,
      "miss": 1745,
      "pret": 1746,
      "Norfol": 1747,
      "guil": 1748,
      "highness": 1749,
      "given": 1750,
      "patience": 1751,
      "deliver": 1752,
      "Vols": 1753,
      "Norfolk": 1754,
      "AUM": 1755,
      "HER": 1756,
      "OP": 1757,
      "cred": 1758,
      "kn": 1759,
      "knew": 1760,
      "ls": 1761,
      "pit": 1762,
      "pra": 1763,
      "ring": 1764,
      "wast": 1765,
      "watch": 1766,
      "ined": 1767,
      "wixt": 1768,
      "alth": 1769,
      "ally": 1770,
      "loves": 1771,
      "suff": 1772,
      "ERLE": 1773,
      "coming": 1774,
      "Wel": 1775,
      "took": 1776,
      "didst": 1777,
      "ONIO": 1778,
      "strength": 1779,
      "gentlemen": 1780,
      "heavens": 1781,
      "flatter": 1782,
      "pale": 1783,
      "posed": 1784,
      "Roman": 1785,
      "ANTONIO": 1786,
      "Lucentio": 1787,
      "AUMERLE": 1788,
      "Bi": 1789,
      "Lanca": 1790,
      "Po": 1791,
      "ZALO": 1792,
      "aw": 1793,
      "bar": 1794,
      "ger": 1795,
      "hood": 1796,
      "lad": 1797,
      "ris": 1798,
      "thri": 1799,
      "enem": 1800,
      "stir": 1801,
      "become": 1802,
      "cept": 1803,
      "lips": 1804,
      "mortal": 1805,
      "post": 1806,
      "Marry": 1807,
      "brave": 1808,
      "tempt": 1809,
      "GONZALO": 1810,
      "Lancaster": 1811,
      "enemies": 1812,
      "Lo": 1813,
      "Lady": 1814,
      "Most": 1815,
      "Pom": 1816,
      "SA": 1817,
      "Ye": 1818,
      "abo": 1819,
      "bly": 1820,
      "book": 1821,
      "eper": 1822,
      "gates": 1823,
      "wed": 1824,
      "ished": 1825,
      "ons": 1826,
      "held": 1827,
      "ced": 1828,
      "hop": 1829,
      "next": 1830,
      "poss": 1831,
      "seek": 1832,
      "thanks": 1833,
      "cient": 1834,
      "prop": 1835,
      "breathe": 1836,
      "cover": 1837,
      "souls": 1838,
      "certain": 1839,
      "ceived": 1840,
      "water": 1841,
      "title": 1842,
      "suffer": 1843,
      "Bianca": 1844,
      "Bes": 1845,
      "CLAU": 1846,
      "DIO": 1847,
      "Pl": 1848,
      "Tran": 1849,
      "brow": 1850,
      "cure": 1851,
      "four": 1852,
      "gave": 1853,
      "mouth": 1854,
      "wh": 1855,
      "often": 1856,
      "rage": 1857,
      "main": 1858,
      "consent": 1859,
      "poison": 1860,
      "bosom": 1861,
      "themselves": 1862,
      "breast": 1863,
      "chee": 1864,
      "cheer": 1865,
      "join": 1866,
      "merry": 1867,
      "grie": 1868,
      "MIONE": 1869,
      "Alas": 1870,
      "Petru": 1871,
      "CLIFFORD": 1872,
      "HERMIONE": 1873,
      "CLAUDIO": 1874,
      "Call": 1875,
      "DA": 1876,
      "IRAN": 1877,
      "JO": 1878,
      "LORD": 1879,
      "Make": 1880,
      "MIRAN": 1881,
      "Per": 1882,
      "Since": 1883,
      "black": 1884,
      "bunes": 1885,
      "ding": 1886,
      "dden": 1887,
      "iers": 1888,
      "kno": 1889,
      "tin": 1890,
      "tor": 1891,
      "twas": 1892,
      "twere": 1893,
      "wd": 1894,
      "throw": 1895,
      "vel": 1896,
      "oward": 1897,
      "forget": 1898,
      "ered": 1899,
      "eds": 1900,
      "weak": 1901,
      "along": 1902,
      "ended": 1903,
      "worse": 1904,
      "div": 1905,
      "Being": 1906,
      "chio": 1907,
      "foe": 1908,
      "virtu": 1909,
      "virtue": 1910,
      "appear": 1911,
      "further": 1912,
      "Aufid": 1913,
      "Tranio": 1914,
      "Petruchio": 1915,
      "MIRANDA": 1916,
      "Aufidius": 1917,
      "HN": 1918,
      "Spe": 1919,
      "SON": 1920,
      "ade": 1921,
      "bad": 1922,
      "bur": 1923,
      "fir": 1924,
      "lst": 1925,
      "pare": 1926,
      "sk": 1927,
      "spr": 1928,
      "issue": 1929,
      "request": 1930,
      "liant": 1931,
      "liber": 1932,
      "already": 1933,
      "usur": 1934,
      "morning": 1935,
      "kings": 1936,
      "fles": 1937,
      "writ": 1938,
      "Hereford": 1939,
      "begin": 1940,
      "office": 1941,
      "battle": 1942,
      "dangerous": 1943,
      "satis": 1944,
      "JOHN": 1945,
      "Tower": 1946,
      "Yes": 1947,
      "aunt": 1948,
      "creat": 1949,
      "frown": 1950,
      "hind": 1951,
      "iol": 1952,
      "mond": 1953,
      "pay": 1954,
      "pal": 1955,
      "plo": 1956,
      "inter": 1957,
      "anus": 1958,
      "orge": 1959,
      "arry": 1960,
      "hip": 1961,
      "feast": 1962,
      "neither": 1963,
      "trou": 1964,
      "goes": 1965,
      "case": 1966,
      "bless": 1967,
      "thence": 1968,
      "dire": 1969,
      "ways": 1970,
      "sons": 1971,
      "Before": 1972,
      "servant": 1973,
      "between": 1974,
      "Richmond": 1975,
      "mile": 1976,
      "patient": 1977,
      "soldiers": 1978,
      "wounds": 1979,
      "Coriol": 1980,
      "quarrel": 1981,
      "Welcome": 1982,
      "possess": 1983,
      "Coriolanus": 1984,
      "AS": 1985,
      "Ar": 1986,
      "Must": 1987,
      "NT": 1988,
      "Pe": 1989,
      "Such": 1990,
      "bla": 1991,
      "cc": 1992,
      "fra": 1993,
      "fres": 1994,
      "mas": 1995,
      "od": 1996,
      "pite": 1997,
      "rup": 1998,
      "rough": 1999,
      "whe": 2000,
      "mes": 2001,
      "town": 2002,
      "having": 2003,
      "owers": 2004,
      "cell": 2005,
      "alk": 2006,
      "unk": 2007,
      "sum": 2008,
      "dies": 2009,
      "speech": 2010,
      "CATES": 2011,
      "vict": 2012,
      "sigh": 2013,
      "sible": 2014,
      "Because": 2015,
      "base": 2016,
      "voice": 2017,
      "offer": 2018,
      "Margar": 2019,
      "presence": 2020,
      "Unless": 2021,
      "dread": 2022,
      "bride": 2023,
      "brief": 2024,
      "spoke": 2025,
      "consul": 2026,
      "Speak": 2027,
      "CATESBY": 2028,
      "Margaret": 2029,
      "Bap": 2030,
      "Ke": 2031,
      "Lond": 2032,
      "Saint": 2033,
      "col": 2034,
      "dark": 2035,
      "fill": 2036,
      "hur": 2037,
      "rum": 2038,
      "ub": 2039,
      "vow": 2040,
      "wars": 2041,
      "arl": 2042,
      "aris": 2043,
      "ona": 2044,
      "llo": 2045,
      "forward": 2046,
      "lip": 2047,
      "Their": 2048,
      "vile": 2049,
      "action": 2050,
      "Whom": 2051,
      "heads": 2052,
      "scar": 2053,
      "deeds": 2054,
      "mighty": 2055,
      "GREY": 2056,
      "deny": 2057,
      "natur": 2058,
      "chamber": 2059,
      "throne": 2060,
      "seems": 2061,
      "close": 2062,
      "Both": 2063,
      "promise": 2064,
      "visit": 2065,
      "Baptis": 2066,
      "London": 2067,
      "BIAN": 2068,
      "Ere": 2069,
      "Ge": 2070,
      "Isa": 2071,
      "Lest": 2072,
      "Mer": 2073,
      "Mis": 2074,
      "Paris": 2075,
      "RIV": 2076,
      "Tr": 2077,
      "bury": 2078,
      "eth": 2079,
      "ging": 2080,
      "har": 2081,
      "ima": 2082,
      "mb": 2083,
      "swi": 2084,
      "sal": 2085,
      "soft": 2086,
      "ancient": 2087,
      "stain": 2088,
      "reg": 2089,
      "chang": 2090,
      "urch": 2091,
      "sol": 2092,
      "mast": 2093,
      "ided": 2094,
      "vern": 2095,
      "sudden": 2096,
      "moon": 2097,
      "ions": 2098,
      "wash": 2099,
      "worship": 2100,
      "umpet": 2101,
      "umph": 2102,
      "viol": 2103,
      "ments": 2104,
      "prayers": 2105,
      "respect": 2106,
      "BAL": 2107,
      "clou": 2108,
      "trem": 2109,
      "princely": 2110,
      "BRA": 2111,
      "fully": 2112,
      "buy": 2113,
      "bitter": 2114,
      "Baptista": 2115,
      "BIANCA": 2116,
      "George": 2117,
      "RIVERS": 2118,
      "BOW": 2119,
      "GAU": 2120,
      "Pa": 2121,
      "Tho": 2122,
      "ack": 2123,
      "coward": 2124,
      "ew": 2125,
      "eat": 2126,
      "eas": 2127,
      "gall": 2128,
      "ian": 2129,
      "uct": 2130,
      "seat": 2131,
      "rever": 2132,
      "hide": 2133,
      "favour": 2134,
      "oney": 2135,
      "til": 2136,
      "prin": 2137,
      "ELBOW": 2138,
      "ured": 2139,
      "pleas": 2140,
      "count": 2141,
      "orten": 2142,
      "scorn": 2143,
      "North": 2144,
      "triumph": 2145,
      "lawful": 2146,
      "presently": 2147,
      "witness": 2148,
      "Stand": 2149,
      "valiant": 2150,
      "slave": 2151,
      "antage": 2152,
      "lament": 2153,
      "fetch": 2154,
      "cross": 2155,
      "music": 2156,
      "success": 2157,
      "flesh": 2158,
      "GAUNT": 2159,
      "GUE": 2160,
      "Hold": 2161,
      "Hark": 2162,
      "Horten": 2163,
      "Ox": 2164,
      "TY": 2165,
      "aven": 2166,
      "boo": 2167,
      "ease": 2168,
      "fond": 2169,
      "ile": 2170,
      "ife": 2171,
      "ick": 2172,
      "kins": 2173,
      "nay": 2174,
      "occ": 2175,
      "port": 2176,
      "patch": 2177,
      "sper": 2178,
      "stant": 2179,
      "least": 2180,
      "almost": 2181,
      "willing": 2182,
      "gest": 2183,
      "moved": 2184,
      "appro": 2185,
      "sio": 2186,
      "prithee": 2187,
      "tribunes": 2188,
      "TAGUE": 2189,
      "quiet": 2190,
      "faults": 2191,
      "demn": 2192,
      "MONTAGUE": 2193,
      "Hortensio": 2194,
      "Kath": 2195,
      "aid": 2196,
      "bor": 2197,
      "cen": 2198,
      "dle": 2199,
      "gent": 2200,
      "ked": 2201,
      "lar": 2202,
      "low": 2203,
      "mid": 2204,
      "match": 2205,
      "tune": 2206,
      "warm": 2207,
      "thither": 2208,
      "arina": 2209,
      "stor": 2210,
      "hemi": 2211,
      "beast": 2212,
      "ley": 2213,
      "cher": 2214,
      "depart": 2215,
      "ooth": 2216,
      "mali": 2217,
      "pey": 2218,
      "feit": 2219,
      "tic": 2220,
      "god": 2221,
      "kingdom": 2222,
      "aked": 2223,
      "died": 2224,
      "cience": 2225,
      "fie": 2226,
      "fied": 2227,
      "bawd": 2228,
      "Doth": 2229,
      "brace": 2230,
      "Bohemi": 2231,
      "Stay": 2232,
      "slaughter": 2233,
      "subjects": 2234,
      "small": 2235,
      "defend": 2236,
      "execution": 2237,
      "umberland": 2238,
      "pretty": 2239,
      "Pompey": 2240,
      "Yea": 2241,
      "Peace": 2242,
      "Northumberland": 2243,
      "Oxford": 2244,
      "Katharina": 2245,
      "DI": 2246,
      "Ex": 2247,
      "GIL": 2248,
      "IEL": 2249,
      "RGIL": 2250,
      "Swe": 2251,
      "awhile": 2252,
      "sland": 2253,
      "vol": 2254,
      "year": 2255,
      "ines": 2256,
      "inno": 2257,
      "lect": 2258,
      "wild": 2259,
      "living": 2260,
      "rid": 2261,
      "trumpet": 2262,
      "ERD": 2263,
      "tear": 2264,
      "govern": 2265,
      "goodly": 2266,
      "perate": 2267,
      "proceed": 2268,
      "hadst": 2269,
      "whence": 2270,
      "hearing": 2271,
      "offence": 2272,
      "ledge": 2273,
      "mild": 2274,
      "VIRGIL": 2275,
      "guard": 2276,
      "wert": 2277,
      "PERDI": 2278,
      "drink": 2279,
      "glad": 2280,
      "greet": 2281,
      "soldier": 2282,
      "obedi": 2283,
      "quickly": 2284,
      "birth": 2285,
      "dishonour": 2286,
      "piece": 2287,
      "knock": 2288,
      "virtuous": 2289,
      "fresh": 2290,
      "Paul": 2291,
      "Bohemia": 2292,
      "Sweet": 2293,
      "VIRGILIA": 2294,
      "PERDITA": 2295,
      "LY": 2296,
      "SLY": 2297,
      "cli": 2298,
      "cord": 2299,
      "corn": 2300,
      "fled": 2301,
      "gn": 2302,
      "gir": 2303,
      "hun": 2304,
      "lish": 2305,
      "mir": 2306,
      "mio": 2307,
      "ny": 2308,
      "ror": 2309,
      "sort": 2310,
      "ues": 2311,
      "zed": 2312,
      "thor": 2313,
      "isure": 2314,
      "stood": 2315,
      "measure": 2316,
      "reck": 2317,
      "leisure": 2318,
      "church": 2319,
      "lic": 2320,
      "ket": 2321,
      "oop": 2322,
      "doing": 2323,
      "ties": 2324,
      "neck": 2325,
      "contin": 2326,
      "ustom": 2327,
      "bling": 2328,
      "blows": 2329,
      "akes": 2330,
      "worst": 2331,
      "perform": 2332,
      "astard": 2333,
      "lands": 2334,
      "angry": 2335,
      "affection": 2336,
      "greater": 2337,
      "MARIAN": 2338,
      "treason": 2339,
      "kindness": 2340,
      "drum": 2341,
      "pier": 2342,
      "weeping": 2343,
      "possible": 2344,
      "knee": 2345,
      "kneel": 2346,
      "banishment": 2347,
      "deserved": 2348,
      "guilty": 2349,
      "trouble": 2350,
      "natural": 2351,
      "Isabel": 2352,
      "MARIANA": 2353,
      "Af": 2354,
      "Am": 2355,
      "Bl": 2356,
      "Fa": 2357,
      "Grum": 2358,
      "Out": 2359,
      "Pri": 2360,
      "Pad": 2361,
      "PAR": 2362,
      "RA": 2363,
      "Watch": 2364,
      "big": 2365,
      "citizen": 2366,
      "dar": 2367,
      "doo": 2368,
      "evil": 2369,
      "fing": 2370,
      "fine": 2371,
      "five": 2372,
      "ker": 2373,
      "mut": 2374,
      "sus": 2375,
      "zen": 2376,
      "inf": 2377,
      "stre": 2378,
      "noise": 2379,
      "seal": 2380,
      "second": 2381,
      "reign": 2382,
      "because": 2383,
      "behind": 2384,
      "lease": 2385,
      "forbid": 2386,
      "assa": 2387,
      "aside": 2388,
      "ourselves": 2389,
      "eter": 2390,
      "sole": 2391,
      "dog": 2392,
      "pest": 2393,
      "lock": 2394,
      "condemn": 2395,
      "shepherd": 2396,
      "blow": 2397,
      "wouldst": 2398,
      "letter": 2399,
      "letters": 2400,
      "broad": 2401,
      "ument": 2402,
      "sport": 2403,
      "speaks": 2404,
      "march": 2405,
      "ignor": 2406,
      "grand": 2407,
      "beggar": 2408,
      "Sirrah": 2409,
      "shows": 2410,
      "sentence": 2411,
      "slew": 2412,
      "needs": 2413,
      "sense": 2414,
      "prisoner": 2415,
      "genet": 2416,
      "English": 2417,
      "position": 2418,
      "antagenet": 2419,
      "While": 2420,
      "Gremio": 2421,
      "obey": 2422,
      "conscience": 2423,
      "ladies": 2424,
      "Plantagenet": 2425,
      "liberty": 2426,
      "usurp": 2427,
      "clouds": 2428,
      "Grumio": 2429,
      "Padua": 2430,
      "PARIS": 2431,
      ":'": 2432,
      "Dis": 2433,
      "Fear": 2434,
      "Gaunt": 2435,
      "Men": 2436,
      "Ped": 2437,
      "Too": 2438,
      "Ver": 2439,
      "ale": 2440,
      "bones": 2441,
      "cing": 2442,
      "cret": 2443,
      "cried": 2444,
      "dry": 2445,
      "fat": 2446,
      "hund": 2447,
      "kin": 2448,
      "lp": 2449,
      "ual": 2450,
      "vain": 2451,
      "walk": 2452,
      "yond": 2453,
      "eness": 2454,
      "ators": 2455,
      "stone": 2456,
      "stop": 2457,
      "sever": 2458,
      "secret": 2459,
      "vey": 2460,
      "ities": 2461,
      "lea": 2462,
      "note": 2463,
      "few": 2464,
      "ider": 2465,
      "manner": 2466,
      "conce": 2467,
      "Think": 2468,
      "laid": 2469,
      "iles": 2470,
      "shed": 2471,
      "prosper": 2472,
      "quo": 2473,
      "quit": 2474,
      "dispatch": 2475,
      "fright": 2476,
      "spur": 2477,
      "plant": 2478,
      "lived": 2479,
      "PETER": 2480,
      "longer": 2481,
      "banished": 2482,
      "drunk": 2483,
      "glass": 2484,
      "womb": 2485,
      "golden": 2486,
      "choose": 2487,
      "damn": 2488,
      "Chris": 2489,
      "above": 2490,
      "victory": 2491,
      "swift": 2492,
      "masters": 2493,
      "slander": 2494,
      "hundred": 2495,
      "!--": 2496,
      "Could": 2497,
      "Cates": 2498,
      "DOR": 2499,
      "En": 2500,
      "Earl": 2501,
      "Fri": 2502,
      "LAR": 2503,
      "TIUS": 2504,
      "Wor": 2505,
      "WIS": 2506,
      "XI": 2507,
      "aking": 2508,
      "ail": 2509,
      "din": 2510,
      "dge": 2511,
      "drown": 2512,
      "fru": 2513,
      "lust": 2514,
      "moun": 2515,
      "ot": 2516,
      "phy": 2517,
      "sca": 2518,
      "uri": 2519,
      "ulet": 2520,
      "uction": 2521,
      "wain": 2522,
      "threat": 2523,
      "erle": 2524,
      "inius": 2525,
      "ances": 2526,
      "encounter": 2527,
      "tol": 2528,
      "hap": 2529,
      "bears": 2530,
      "wice": 2531,
      "forgot": 2532,
      "asion": 2533,
      "nder": 2534,
      "liest": 2535,
      "weary": 2536,
      "yourselves": 2537,
      "add": 2538,
      "ures": 2539,
      "host": 2540,
      "ARIEL": 2541,
      "shadow": 2542,
      "arden": 2543,
      "uel": 2544,
      "labour": 2545,
      "ilt": 2546,
      "venge": 2547,
      "ular": 2548,
      "knowledge": 2549,
      "proof": 2550,
      "quite": 2551,
      "oler": 2552,
      "woes": 2553,
      "despair": 2554,
      "desperate": 2555,
      "exc": 2556,
      "bray": 2557,
      "LEWIS": 2558,
      "precious": 2559,
      "effect": 2560,
      "pride": 2561,
      "Citizens": 2562,
      "lordship": 2563,
      "Unto": 2564,
      "steel": 2565,
      "double": 2566,
      "glory": 2567,
      "knees": 2568,
      "entertain": 2569,
      "blessed": 2570,
      "towards": 2571,
      "Capulet": 2572,
      "kinsman": 2573,
      "Watchman": 2574,
      "citizens": 2575,
      "Catesby": 2576,
      "LARTIUS": 2577,
      ";'": 2578,
      "Ab": 2579,
      "Ad": 2580,
      "Aum": 2581,
      "Bro": 2582,
      "MP": 2583,
      "Mow": 2584,
      "Pardon": 2585,
      "RTIS": 2586,
      "alive": 2587,
      "ben": 2588,
      "bastard": 2589,
      "dance": 2590,
      "fought": 2591,
      "grown": 2592,
      "gment": 2593,
      "hn": 2594,
      "mour": 2595,
      "mend": 2596,
      "money": 2597,
      "por": 2598,
      "pes": 2599,
      "sour": 2600,
      "schoo": 2601,
      "ude": 2602,
      "wench": 2603,
      "inking": 2604,
      "enjoy": 2605,
      "army": 2606,
      "ated": 2607,
      "methinks": 2608,
      "seven": 2609,
      "hair": 2610,
      "remain": 2611,
      "itors": 2612,
      "hire": 2613,
      "ires": 2614,
      "deter": 2615,
      "kept": 2616,
      "ads": 2617,
      "allow": 2618,
      "unts": 2619,
      "arest": 2620,
      "shake": 2621,
      "neigh": 2622,
      "contr": 2623,
      "table": 2624,
      "going": 2625,
      "proclaim": 2626,
      "ounds": 2627,
      "spent": 2628,
      "sim": 2629,
      "Within": 2630,
      "struck": 2631,
      "honours": 2632,
      "prepar": 2633,
      "ations": 2634,
      "flowers": 2635,
      "deadly": 2636,
      "clam": 2637,
      "guess": 2638,
      "understand": 2639,
      "steal": 2640,
      "guest": 2641,
      "CURTIS": 2642,
      "foolish": 2643,
      "promised": 2644,
      "John": 2645,
      "author": 2646,
      "wretched": 2647,
      "SAMP": 2648,
      "white": 2649,
      "cheeks": 2650,
      "firm": 2651,
      "Keeper": 2652,
      "Faith": 2653,
      "doom": 2654,
      "Pedant": 2655,
      "quoth": 2656,
      "Aumerle": 2657,
      "Mowbray": 2658,
      "SAMPSON": 2659,
      ":--": 2660,
      "Apo": 2661,
      "BU": 2662,
      "EX": 2663,
      "Either": 2664,
      "Hear": 2665,
      "IGON": 2666,
      "Mine": 2667,
      "Put": 2668,
      "bend": 2669,
      "cir": 2670,
      "dain": 2671,
      "due": 2672,
      "ffi": 2673,
      "hu": 2674,
      "rise": 2675,
      "sy": 2676,
      "vate": 2677,
      "yal": 2678,
      "inj": 2679,
      "orious": 2680,
      "aring": 2681,
      "arri": 2682,
      "stro": 2683,
      "stars": 2684,
      "health": 2685,
      "seiz": 2686,
      "lest": 2687,
      "rot": 2688,
      "deput": 2689,
      "ets": 2690,
      "door": 2691,
      "fell": 2692,
      "tide": 2693,
      "among": 2694,
      "ney": 2695,
      "nest": 2696,
      "supp": 2697,
      "herself": 2698,
      "teen": 2699,
      "teach": 2700,
      "ility": 2701,
      "blind": 2702,
      "cio": 2703,
      "cians": 2704,
      "early": 2705,
      "umb": 2706,
      "qual": 2707,
      "Heaven": 2708,
      "six": 2709,
      "brothers": 2710,
      "honourable": 2711,
      "calls": 2712,
      "bids": 2713,
      "kindred": 2714,
      "charity": 2715,
      "subst": 2716,
      "cutio": 2717,
      "truly": 2718,
      "month": 2719,
      "officer": 2720,
      "minister": 2721,
      "dreams": 2722,
      "humble": 2723,
      "demand": 2724,
      "ANTIGON": 2725,
      "wisdom": 2726,
      "Lewis": 2727,
      "cruel": 2728,
      "judge": 2729,
      "valour": 2730,
      "ician": 2731,
      "wretch": 2732,
      "Poor": 2733,
      "satisfied": 2734,
      "whether": 2735,
      "summer": 2736,
      "scarce": 2737,
      "Mercutio": 2738,
      "True": 2739,
      "school": 2740,
      "BURY": 2741,
      "ANTIGONUS": 2742,
      "Alack": 2743,
      "Bet": 2744,
      "Bid": 2745,
      "Harry": 2746,
      "Know": 2747,
      "Mus": 2748,
      "Made": 2749,
      "Never": 2750,
      "Show": 2751,
      "Twas": 2752,
      "TCLIFF": 2753,
      "avo": 2754,
      "abroad": 2755,
      "bb": 2756,
      "bright": 2757,
      "custom": 2758,
      "dur": 2759,
      "dwell": 2760,
      "eem": 2761,
      "mal": 2762,
      "ni": 2763,
      "ners": 2764,
      "pun": 2765,
      "ron": 2766,
      "ume": 2767,
      "thir": 2768,
      "thro": 2769,
      "ining": 2770,
      "anon": 2771,
      "envy": 2772,
      "arch": 2773,
      "ony": 2774,
      "sem": 2775,
      "hie": 2776,
      "dev": 2777,
      "deal": 2778,
      "alous": 2779,
      "loyal": 2780,
      "idle": 2781,
      "faint": 2782,
      "ament": 2783,
      "convey": 2784,
      "shrew": 2785,
      "iful": 2786,
      "ult": 2787,
      "thereof": 2788,
      "provost": 2789,
      "app": 2790,
      "view": 2791,
      "els": 2792,
      "acle": 2793,
      "angu": 2794,
      "others": 2795,
      "wherefore": 2796,
      "miser": 2797,
      "condition": 2798,
      "party": 2799,
      "foes": 2800,
      "flower": 2801,
      "priest": 2802,
      "private": 2803,
      "trial": 2804,
      "cles": 2805,
      "chase": 2806,
      "pleased": 2807,
      "Once": 2808,
      "crave": 2809,
      "wail": 2810,
      "venture": 2811,
      "vail": 2812,
      "yea": 2813,
      "laugh": 2814,
      "forced": 2815,
      "question": 2816,
      "winter": 2817,
      "Cominius": 2818,
      "walls": 2819,
      "judgment": 2820,
      "Volsces": 2821,
      "prophe": 2822,
      "spring": 2823,
      "creature": 2824,
      "blame": 2825,
      "malice": 2826,
      "RATCLIFF": 2827,
      "vengeance": 2828,
      "'?": 2829,
      "BIS": 2830,
      "Barn": 2831,
      "Des": 2832,
      "Fie": 2833,
      "Hence": 2834,
      "HOP": 2835,
      "Mant": 2836,
      "Ne": 2837,
      "Please": 2838,
      "Rut": 2839,
      "Under": 2840,
      "Vin": 2841,
      "Wi": 2842,
      "bite": 2843,
      "dull": 2844,
      "fold": 2845,
      "gg": 2846,
      "gin": 2847,
      "gown": 2848,
      "garm": 2849,
      "gage": 2850,
      "loo": 2851,
      "mn": 2852,
      "ok": 2853,
      "ray": 2854,
      "swords": 2855,
      "wing": 2856,
      "wag": 2857,
      "yard": 2858,
      "ering": 2859,
      "incl": 2860,
      "ens": 2861,
      "enes": 2862,
      "stones": 2863,
      "stoop": 2864,
      "lly": 2865,
      "meat": 2866,
      "top": 2867,
      "sell": 2868,
      "received": 2869,
      "vell": 2870,
      "leep": 2871,
      "cease": 2872,
      "former": 2873,
      "eding": 2874,
      "ution": 2875,
      "room": 2876,
      "ado": 2877,
      "als": 2878,
      "alter": 2879,
      "unning": 2880,
      "ident": 2881,
      "shal": 2882,
      "concl": 2883,
      "shri": 2884,
      "ANLE": 2885,
      "taken": 2886,
      "modest": 2887,
      "tect": 2888,
      "blest": 2889,
      "bot": 2890,
      "cap": 2891,
      "cian": 2892,
      "cial": 2893,
      "mayst": 2894,
      "proper": 2895,
      "IST": 2896,
      "spake": 2897,
      "vious": 2898,
      "vices": 2899,
      "account": 2900,
      "extre": 2901,
      "tyrant": 2902,
      "counten": 2903,
      "aff": 2904,
      "Lords": 2905,
      "ioli": 2906,
      "pack": 2907,
      "cock": 2908,
      "tract": 2909,
      "tongues": 2910,
      "STANLE": 2911,
      "fellows": 2912,
      "buried": 2913,
      "temper": 2914,
      "clock": 2915,
      "maids": 2916,
      "contented": 2917,
      "corse": 2918,
      "humour": 2919,
      "honesty": 2920,
      "Peter": 2921,
      "Corioli": 2922,
      "Whilst": 2923,
      "Methinks": 2924,
      "Death": 2925,
      "brows": 2926,
      "divine": 2927,
      "changed": 2928,
      "BALT": 2929,
      "Thomas": 2930,
      "easy": 2931,
      "TYBALT": 2932,
      "Paulina": 2933,
      "After": 2934,
      "fruit": 2935,
      "excuse": 2936,
      "deputy": 2937,
      "BISHOP": 2938,
      "Mantua": 2939,
      "Rutland": 2940,
      "Vincentio": 2941,
      "STANLEY": 2942,
      "AL": 2943,
      "GE": 2944,
      "Ind": 2945,
      "KEN": 2946,
      "Si": 2947,
      "Som": 2948,
      "Tut": 2949,
      "ama": 2950,
      "cup": 2951,
      "dri": 2952,
      "dust": 2953,
      "eed": 2954,
      "fan": 2955,
      "fret": 2956,
      "fran": 2957,
      "gif": 2958,
      "ild": 2959,
      "kna": 2960,
      "ler": 2961,
      "pin": 2962,
      "round": 2963,
      "smile": 2964,
      "twixt": 2965,
      "twice": 2966,
      "vish": 2967,
      "whis": 2968,
      "wra": 2969,
      "wine": 2970,
      "wol": 2971,
      "thunder": 2972,
      "anley": 2973,
      "arp": 2974,
      "arti": 2975,
      "star": 2976,
      "llen": 2977,
      "noon": 2978,
      "nose": 2979,
      "ref": 2980,
      "ites": 2981,
      "ited": 2982,
      "beard": 2983,
      "lean": 2984,
      "utter": 2985,
      "lia": 2986,
      "west": 2987,
      "weigh": 2988,
      "wealth": 2989,
      "ghost": 2990,
      "wither": 2991,
      "always": 2992,
      "lot": 2993,
      "idings": 2994,
      "fain": 2995,
      "necess": 2996,
      "constant": 2997,
      "AND": 2998,
      "sheep": 2999,
      "blush": 3000,
      "sail": 3001,
      "safet": 3002,
      "sacred": 3003,
      "sirrah": 3004,
      "therein": 3005,
      "perceive": 3006,
      "fiery": 3007,
      "sire": 3008,
      "stern": 3009,
      "import": 3010,
      "tyran": 3011,
      "chief": 3012,
      "affair": 3013,
      "abs": 3014,
      "prevent": 3015,
      "emp": 3016,
      "embrace": 3017,
      "Anti": 3018,
      "THOM": 3019,
      "commend": 3020,
      "wicked": 3021,
      "courage": 3022,
      "whilst": 3023,
      "Dost": 3024,
      "traitors": 3025,
      "faced": 3026,
      "charged": 3027,
      "rench": 3028,
      "passion": 3029,
      "repent": 3030,
      "drawn": 3031,
      "senate": 3032,
      "wrongs": 3033,
      "remedy": 3034,
      "green": 3035,
      "Stanley": 3036,
      "Prince": 3037,
      "reasons": 3038,
      "gross": 3039,
      "pains": 3040,
      "silence": 3041,
      "Caius": 3042,
      "Jove": 3043,
      "choice": 3044,
      "drop": 3045,
      "knave": 3046,
      "Besides": 3047,
      "plot": 3048,
      "Art": 3049,
      "Mistress": 3050,
      "BRAKEN": 3051,
      "occasion": 3052,
      "innocent": 3053,
      "girl": 3054,
      "Verona": 3055,
      "leaves": 3056,
      "Friar": 3057,
      "Brother": 3058,
      "simple": 3059,
      "prepared": 3060,
      "circ": 3061,
      "Somer": 3062,
      "safety": 3063,
      "THOMAS": 3064,
      "BRAKENBURY": 3065,
      "?'": 3066,
      "Di": 3067,
      "Dor": 3068,
      "DER": 3069,
      "Fl": 3070,
      "GOR": 3071,
      "MIST": 3072,
      "OV": 3073,
      "RESS": 3074,
      "Turn": 3075,
      "aught": 3076,
      "ball": 3077,
      "bark": 3078,
      "eag": 3079,
      "fla": 3080,
      "fury": 3081,
      "garden": 3082,
      "hit": 3083,
      "hors": 3084,
      "itol": 3085,
      "jour": 3086,
      "lan": 3087,
      "langu": 3088,
      "ras": 3089,
      "sits": 3090,
      "uff": 3091,
      "went": 3092,
      "wings": 3093,
      "zard": 3094,
      "inous": 3095,
      "inform": 3096,
      "oracle": 3097,
      "enius": 3098,
      "ating": 3099,
      "onoun": 3100,
      "haps": 3101,
      "roth": 3102,
      "rock": 3103,
      "lix": 3104,
      "del": 3105,
      "dew": 3106,
      "delight": 3107,
      "deceived": 3108,
      "weeds": 3109,
      "key": 3110,
      "thout": 3111,
      "adie": 3112,
      "alas": 3113,
      "hollow": 3114,
      "loath": 3115,
      "tive": 3116,
      "tired": 3117,
      "amp": 3118,
      "ardine": 3119,
      "conqu": 3120,
      "motion": 3121,
      "iff": 3122,
      "wore": 3123,
      "ctise": 3124,
      "complain": 3125,
      "Myself": 3126,
      "mayor": 3127,
      "broken": 3128,
      "prov": 3129,
      "quaint": 3130,
      "plead": 3131,
      "appare": 3132,
      "ONE": 3133,
      "Offi": 3134,
      "design": 3135,
      "despite": 3136,
      "imprison": 3137,
      "wherein": 3138,
      "ughters": 3139,
      "Wherein": 3140,
      "prayer": 3141,
      "pawn": 3142,
      "rude": 3143,
      "holds": 3144,
      "plague": 3145,
      "tread": 3146,
      "treach": 3147,
      "fares": 3148,
      "GREGOR": 3149,
      "meaning": 3150,
      "renown": 3151,
      "jealous": 3152,
      "passing": 3153,
      "welve": 3154,
      "gives": 3155,
      "cares": 3156,
      "carry": 3157,
      "witch": 3158,
      "wanton": 3159,
      "deserve": 3160,
      "silver": 3161,
      "cursed": 3162,
      "troth": 3163,
      "profess": 3164,
      "Having": 3165,
      "Capitol": 3166,
      "belly": 3167,
      "stuff": 3168,
      "castle": 3169,
      "practise": 3170,
      "cheek": 3171,
      "colour": 3172,
      "violent": 3173,
      "boot": 3174,
      "borne": 3175,
      "trumpets": 3176,
      "ERDONE": 3177,
      "hung": 3178,
      "Prithee": 3179,
      "finger": 3180,
      "ignorant": 3181,
      "Menenius": 3182,
      "fatal": 3183,
      "Christi": 3184,
      "benef": 3185,
      "Apollo": 3186,
      "rotten": 3187,
      "Barnardine": 3188,
      "Without": 3189,
      "countenance": 3190,
      "Indeed": 3191,
      "absence": 3192,
      "Somerset": 3193,
      "DERBY": 3194,
      "MISTRESS": 3195,
      "OVERDONE": 3196,
      "adieu": 3197,
      "GREGORY": 3198,
      "CH": 3199,
      "Cousin": 3200,
      "FORD": 3201,
      "Great": 3202,
      "Ho": 3203,
      "OX": 3204,
      "Pis": 3205,
      "RR": 3206,
      "Res": 3207,
      "SOM": 3208,
      "Still": 3209,
      "VAL": 3210,
      "ax": 3211,
      "aim": 3212,
      "cat": 3213,
      "crow": 3214,
      "ek": 3215,
      "fas": 3216,
      "ial": 3217,
      "ience": 3218,
      "lend": 3219,
      "nine": 3220,
      "number": 3221,
      "pul": 3222,
      "passa": 3223,
      "rate": 3224,
      "sme": 3225,
      "sli": 3226,
      "sday": 3227,
      "saint": 3228,
      "sooth": 3229,
      "ton": 3230,
      "tidings": 3231,
      "vantage": 3232,
      "wand": 3233,
      "wof": 3234,
      "wood": 3235,
      "inher": 3236,
      "isle": 3237,
      "envious": 3238,
      "stat": 3239,
      "mess": 3240,
      "esy": 3241,
      "nobles": 3242,
      "rema": 3243,
      "receive": 3244,
      "becomes": 3245,
      "wives": 3246,
      "hion": 3247,
      "asleep": 3248,
      "ldom": 3249,
      "utes": 3250,
      "lim": 3251,
      "deposed": 3252,
      "ety": 3253,
      "ursday": 3254,
      "lod": 3255,
      "fam": 3256,
      "tial": 3257,
      "neg": 3258,
      "butcher": 3259,
      "contract": 3260,
      "Three": 3261,
      "Thursday": 3262,
      "shut": 3263,
      "shore": 3264,
      "tail": 3265,
      "tres": 3266,
      "ERIA": 3267,
      "ify": 3268,
      "persu": 3269,
      "perfect": 3270,
      "outward": 3271,
      "uments": 3272,
      "protect": 3273,
      "whole": 3274,
      "shouldst": 3275,
      "disgrace": 3276,
      "disposition": 3277,
      "Into": 3278,
      "RICHMON": 3279,
      "access": 3280,
      "express": 3281,
      "excell": 3282,
      "bran": 3283,
      "babe": 3284,
      "gentlewoman": 3285,
      "offend": 3286,
      "standing": 3287,
      "Mark": 3288,
      "prepare": 3289,
      "names": 3290,
      "parts": 3291,
      "serves": 3292,
      "undone": 3293,
      "resign": 3294,
      "commit": 3295,
      "inted": 3296,
      "Rivers": 3297,
      "preser": 3298,
      "ruin": 3299,
      "whither": 3300,
      "begins": 3301,
      "mione": 3302,
      "brain": 3303,
      "tedious": 3304,
      "farther": 3305,
      "thrust": 3306,
      "seeming": 3307,
      "quire": 3308,
      "clear": 3309,
      "follows": 3310,
      "followers": 3311,
      "curst": 3312,
      "fools": 3313,
      "Hermione": 3314,
      "hanging": 3315,
      "spoken": 3316,
      "groom": 3317,
      "lamb": 3318,
      "advise": 3319,
      "advantage": 3320,
      "Grey": 3321,
      "troop": 3322,
      "instruct": 3323,
      "supper": 3324,
      "ERSET": 3325,
      "resolved": 3326,
      "cries": 3327,
      "mission": 3328,
      "guilt": 3329,
      "awake": 3330,
      "thrive": 3331,
      "burthen": 3332,
      "sighs": 3333,
      "dreadful": 3334,
      "hurt": 3335,
      "storm": 3336,
      "obedience": 3337,
      "damned": 3338,
      "dinner": 3339,
      "physi": 3340,
      "authority": 3341,
      "Musician": 3342,
      "throat": 3343,
      "devise": 3344,
      "garments": 3345,
      "affairs": 3346,
      "rascal": 3347,
      "Christian": 3348,
      "benefit": 3349,
      "OXFORD": 3350,
      "Pisa": 3351,
      "SOMERSET": 3352,
      "VALERIA": 3353,
      "woful": 3354,
      "RICHMOND": 3355,
      "AE": 3356,
      "AMIL": 3357,
      "Br": 3358,
      "BUS": 3359,
      "Bion": 3360,
      "Bona": 3361,
      "El": 3362,
      "Gra": 3363,
      "HY": 3364,
      "Has": 3365,
      "LIUS": 3366,
      "MOW": 3367,
      "MOP": 3368,
      "MAMIL": 3369,
      "Sici": 3370,
      "Two": 3371,
      "Tail": 3372,
      "Very": 3373,
      "bas": 3374,
      "bond": 3375,
      "cate": 3376,
      "cunning": 3377,
      "ele": 3378,
      "east": 3379,
      "fle": 3380,
      "flight": 3381,
      "flies": 3382,
      "gy": 3383,
      "ime": 3384,
      "ives": 3385,
      "iest": 3386,
      "line": 3387,
      "list": 3388,
      "mur": 3389,
      "mbr": 3390,
      "pure": 3391,
      "rt": 3392,
      "rent": 3393,
      "rash": 3394,
      "san": 3395,
      "sho": 3396,
      "sway": 3397,
      "tut": 3398,
      "twelve": 3399,
      "ug": 3400,
      "ued": 3401,
      "van": 3402,
      "yonder": 3403,
      "thi": 3404,
      "inion": 3405,
      "ences": 3406,
      "step": 3407,
      "stab": 3408,
      "habit": 3409,
      "vex": 3410,
      "belike": 3411,
      "beloved": 3412,
      "beheld": 3413,
      "legs": 3414,
      "owe": 3415,
      "forsworn": 3416,
      "asp": 3417,
      "roar": 3418,
      "root": 3419,
      "lion": 3420,
      "delay": 3421,
      "dello": 3422,
      "weight": 3423,
      "weap": 3424,
      "adventure": 3425,
      "alm": 3426,
      "usion": 3427,
      "rain": 3428,
      "until": 3429,
      "sued": 3430,
      "sured": 3431,
      "suffi": 3432,
      "conj": 3433,
      "pronoun": 3434,
      "shr": 3435,
      "taste": 3436,
      "ouses": 3437,
      "ETER": 3438,
      "teeth": 3439,
      "goodness": 3440,
      "iffer": 3441,
      "kingly": 3442,
      "peril": 3443,
      "perish": 3444,
      "atest": 3445,
      "seeing": 3446,
      "ages": 3447,
      "ump": 3448,
      "umble": 3449,
      "protest": 3450,
      "timely": 3451,
      "quench": 3452,
      "Help": 3453,
      "fathers": 3454,
      "disdain": 3455,
      "ounty": 3456,
      "spend": 3457,
      "accept": 3458,
      "Believe": 3459,
      "ABHOR": 3460,
      "exile": 3461,
      "affect": 3462,
      "ursed": 3463,
      "prey": 3464,
      "prevail": 3465,
      "conduct": 3466,
      "tled": 3467,
      "emplo": 3468,
      "paper": 3469,
      "fortunes": 3470,
      "betwixt": 3471,
      "daughters": 3472,
      "intend": 3473,
      "prize": 3474,
      "dying": 3475,
      "parent": 3476,
      "gues": 3477,
      "keeps": 3478,
      "denied": 3479,
      "confer": 3480,
      "chair": 3481,
      "sorry": 3482,
      "happiness": 3483,
      "compan": 3484,
      "Boy": 3485,
      "remembr": 3486,
      "petition": 3487,
      "spirits": 3488,
      "crack": 3489,
      "slow": 3490,
      "accus": 3491,
      "accuse": 3492,
      "corrup": 3493,
      "humbly": 3494,
      "wounded": 3495,
      "courtesy": 3496,
      "Leave": 3497,
      "penit": 3498,
      "wallow": 3499,
      "atswain": 3500,
      "resolve": 3501,
      "wont": 3502,
      "credit": 3503,
      "Polix": 3504,
      "wedding": 3505,
      "Beseech": 3506,
      "palace": 3507,
      "direct": 3508,
      "BRAY": 3509,
      "pleasant": 3510,
      "large": 3511,
      "continue": 3512,
      "dares": 3513,
      "solemn": 3514,
      "several": 3515,
      "threaten": 3516,
      "neighbour": 3517,
      "contrary": 3518,
      "EXETER": 3519,
      "human": 3520,
      "punish": 3521,
      "miserable": 3522,
      "wrath": 3523,
      "empty": 3524,
      "circum": 3525,
      "horses": 3526,
      "conquer": 3527,
      "Officer": 3528,
      "BUSHY": 3529,
      "Biondello": 3530,
      "MOWBRAY": 3531,
      "MOPSA": 3532,
      "MAMILLIUS": 3533,
      "Tailor": 3534,
      "ABHORSON": 3535,
      "employ": 3536,
      "Polixenes": 3537,
      "Bear": 3538,
      "CY": 3539,
      "Dear": 3540,
      "Father": 3541,
      "French": 3542,
      "Might": 3543,
      "None": 3544,
      "Nap": 3545,
      "Ret": 3546,
      "Right": 3547,
      "Wid": 3548,
      "ago": 3549,
      "catch": 3550,
      "dit": 3551,
      "ded": 3552,
      "dag": 3553,
      "fro": 3554,
      "furn": 3555,
      "gon": 3556,
      "gate": 3557,
      "hark": 3558,
      "houses": 3559,
      "iled": 3560,
      "luck": 3561,
      "mere": 3562,
      "mill": 3563,
      "mity": 3564,
      "ns": 3565,
      "naked": 3566,
      "pic": 3567,
      "pub": 3568,
      "song": 3569,
      "sco": 3570,
      "swallow": 3571,
      "wond": 3572,
      "wits": 3573,
      "wreck": 3574,
      "intell": 3575,
      "infect": 3576,
      "incre": 3577,
      "story": 3578,
      "heed": 3579,
      "seas": 3580,
      "reed": 3581,
      "reward": 3582,
      "beyond": 3583,
      "hid": 3584,
      "rose": 3585,
      "dep": 3586,
      "devo": 3587,
      "wept": 3588,
      "hatred": 3589,
      "ourish": 3590,
      "ride": 3591,
      "urance": 3592,
      "raw": 3593,
      "unnatural": 3594,
      "making": 3595,
      "fee": 3596,
      "ARCH": 3597,
      "hereafter": 3598,
      "fail": 3599,
      "faces": 3600,
      "tire": 3601,
      "amen": 3602,
      "suck": 3603,
      "terror": 3604,
      "endure": 3605,
      "lace": 3606,
      "shun": 3607,
      "taught": 3608,
      "ously": 3609,
      "bodies": 3610,
      "ants": 3611,
      "capt": 3612,
      "perpet": 3613,
      "comfor": 3614,
      "comple": 3615,
      "seest": 3616,
      "theirs": 3617,
      "dign": 3618,
      "Nothing": 3619,
      "wholes": 3620,
      "apt": 3621,
      "appoint": 3622,
      "sometime": 3623,
      "sometimes": 3624,
      "fig": 3625,
      "discover": 3626,
      "wot": 3627,
      "spare": 3628,
      "hearted": 3629,
      "vide": 3630,
      "market": 3631,
      "ples": 3632,
      "expect": 3633,
      "iment": 3634,
      "chide": 3635,
      "mistake": 3636,
      "misery": 3637,
      "fairly": 3638,
      "Marshal": 3639,
      "services": 3640,
      "called": 3641,
      "assist": 3642,
      "assurance": 3643,
      "folly": 3644,
      "THAS": 3645,
      "intent": 3646,
      "scene": 3647,
      "Thanks": 3648,
      "rule": 3649,
      "opinion": 3650,
      "trick": 3651,
      "whiles": 3652,
      "crowns": 3653,
      "partic": 3654,
      "joys": 3655,
      "joyful": 3656,
      "needful": 3657,
      "undertake": 3658,
      "PERCY": 3659,
      "giving": 3660,
      "build": 3661,
      "patri": 3662,
      "curses": 3663,
      "senators": 3664,
      "Only": 3665,
      "monstr": 3666,
      "turns": 3667,
      "waking": 3668,
      "winds": 3669,
      "commanded": 3670,
      "groan": 3671,
      "painted": 3672,
      "Mayor": 3673,
      "waters": 3674,
      "advance": 3675,
      "advised": 3676,
      "destroy": 3677,
      "instrument": 3678,
      "calm": 3679,
      "leads": 3680,
      "counterfeit": 3681,
      "drops": 3682,
      "shortly": 3683,
      "duked": 3684,
      "praise": 3685,
      "Love": 3686,
      "hopes": 3687,
      "griev": 3688,
      "sky": 3689,
      "piteous": 3690,
      "colours": 3691,
      "BALTHAS": 3692,
      "reverend": 3693,
      "princes": 3694,
      "princess": 3695,
      "willingly": 3696,
      "government": 3697,
      "urious": 3698,
      "determin": 3699,
      "durst": 3700,
      "looking": 3701,
      "language": 3702,
      "apparel": 3703,
      "remains": 3704,
      "excellent": 3705,
      "remembrance": 3706,
      "Widow": 3707,
      "picion": 3708,
      "public": 3709,
      "wholesome": 3710,
      "dukedom": 3711,
      "BALTHASAR": 3712,
      "?--": 3713,
      "Ac": 3714,
      "Amen": 3715,
      "Four": 3716,
      "FOL": 3717,
      "Im": 3718,
      "Just": 3719,
      "Lay": 3720,
      "Long": 3721,
      "Pat": 3722,
      "Page": 3723,
      "Post": 3724,
      "Rep": 3725,
      "Set": 3726,
      "Sup": 3727,
      "Save": 3728,
      "Sold": 3729,
      "Tit": 3730,
      "Vi": 3731,
      "Whither": 3732,
      "ald": 3733,
      "bon": 3734,
      "bare": 3735,
      "cend": 3736,
      "cise": 3737,
      "fare": 3738,
      "gree": 3739,
      "knight": 3740,
      "lis": 3741,
      "mul": 3742,
      "murderer": 3743,
      "net": 3744,
      "nought": 3745,
      "pent": 3746,
      "purse": 3747,
      "powers": 3748,
      "ress": 3749,
      "rust": 3750,
      "rous": 3751,
      "sink": 3752,
      "sins": 3753,
      "slay": 3754,
      "scept": 3755,
      "slip": 3756,
      "tort": 3757,
      "uary": 3758,
      "vouch": 3759,
      "vours": 3760,
      "wake": 3761,
      "thorn": 3762,
      "inst": 3763,
      "instant": 3764,
      "orous": 3765,
      "ises": 3766,
      "ishop": 3767,
      "enmity": 3768,
      "aries": 3769,
      "attempt": 3770,
      "stol": 3771,
      "store": 3772,
      "stret": 3773,
      "strew": 3774,
      "meant": 3775,
      "medi": 3776,
      "member": 3777,
      "tomb": 3778,
      "sequ": 3779,
      "season": 3780,
      "repe": 3781,
      "rebel": 3782,
      "repair": 3783,
      "revol": 3784,
      "realm": 3785,
      "vest": 3786,
      "behalf": 3787,
      "hill": 3788,
      "choler": 3789,
      "rogue": 3790,
      "liar": 3791,
      "dece": 3792,
      "deem": 3793,
      "debt": 3794,
      "degree": 3795,
      "weather": 3796,
      "keeper": 3797,
      "ries": 3798,
      "aded": 3799,
      "advers": 3800,
      "uses": 3801,
      "soever": 3802,
      "raise": 3803,
      "ording": 3804,
      "unknown": 3805,
      "untimely": 3806,
      "mag": 3807,
      "mage": 3808,
      "maint": 3809,
      "feed": 3810,
      "idence": 3811,
      "fame": 3812,
      "faction": 3813,
      "manners": 3814,
      "tied": 3815,
      "tily": 3816,
      "shape": 3817,
      "sues": 3818,
      "terms": 3819,
      "arts": 3820,
      "sharp": 3821,
      "comest": 3822,
      "taking": 3823,
      "boar": 3824,
      "venom": 3825,
      "compl": 3826,
      "earnest": 3827,
      "special": 3828,
      "brook": 3829,
      "Young": 3830,
      "appre": 3831,
      "fix": 3832,
      "CAS": 3833,
      "disper": 3834,
      "spite": 3835,
      "brings": 3836,
      "bred": 3837,
      "armour": 3838,
      "friendly": 3839,
      "absent": 3840,
      "March": 3841,
      "merit": 3842,
      "pping": 3843,
      "write": 3844,
      "bearing": 3845,
      "privile": 3846,
      "longs": 3847,
      "trade": 3848,
      "kindly": 3849,
      "engthen": 3850,
      "slept": 3851,
      "camest": 3852,
      "lasting": 3853,
      "dress": 3854,
      "glorious": 3855,
      "boys": 3856,
      "ships": 3857,
      "clothe": 3858,
      "maiden": 3859,
      "Boatswain": 3860,
      "grey": 3861,
      "hateful": 3862,
      "ROSS": 3863,
      "wants": 3864,
      "deserves": 3865,
      "Gentlemen": 3866,
      "NORFOL": 3867,
      "freely": 3868,
      "smooth": 3869,
      "uteous": 3870,
      "Lucio": 3871,
      "grows": 3872,
      "consider": 3873,
      "Came": 3874,
      "instruction": 3875,
      "supposed": 3876,
      "bird": 3877,
      "profit": 3878,
      "granted": 3879,
      "feeling": 3880,
      "resolution": 3881,
      "Volsce": 3882,
      "knife": 3883,
      "torment": 3884,
      "frame": 3885,
      "odds": 3886,
      "solute": 3887,
      "respected": 3888,
      "Those": 3889,
      "pleasing": 3890,
      "approach": 3891,
      "gently": 3892,
      "Exeter": 3893,
      "obedient": 3894,
      "drums": 3895,
      "suspect": 3896,
      "suspicion": 3897,
      "DORCAS": 3898,
      "Worthy": 3899,
      "mourn": 3900,
      "seize": 3901,
      "amazed": 3902,
      "Dorset": 3903,
      "treacher": 3904,
      "fashion": 3905,
      "passage": 3906,
      "Sicilia": 3907,
      "sanct": 3908,
      "thief": 3909,
      "Naples": 3910,
      "dagger": 3911,
      "scope": 3912,
      "intellig": 3913,
      "increase": 3914,
      "captain": 3915,
      "particular": 3916,
      "monstrous": 3917,
      "sceptre": 3918,
      "NORFOLK": 3919,
      "Ber": 3920,
      "Bre": 3921,
      "Bra": 3922,
      "Bring": 3923,
      "Co": 3924,
      "Down": 3925,
      "Fe": 3926,
      "FERD": 3927,
      "Froth": 3928,
      "GH": 3929,
      "Ghost": 3930,
      "Hunts": 3931,
      "Ire": 3932,
      "Jack": 3933,
      "La": 3934,
      "Mil": 3935,
      "NS": 3936,
      "Play": 3937,
      "Rat": 3938,
      "Son": 3939,
      "Sal": 3940,
      "SET": 3941,
      "Stri": 3942,
      "Wilt": 3943,
      "alike": 3944,
      "bill": 3945,
      "bours": 3946,
      "cere": 3947,
      "cus": 3948,
      "chast": 3949,
      "dower": 3950,
      "eve": 3951,
      "equal": 3952,
      "fy": 3953,
      "fif": 3954,
      "hunt": 3955,
      "ia": 3956,
      "irest": 3957,
      "knot": 3958,
      "lun": 3959,
      "lark": 3960,
      "loud": 3961,
      "nal": 3962,
      "oak": 3963,
      "path": 3964,
      "pound": 3965,
      "ption": 3966,
      "rand": 3967,
      "rend": 3968,
      "sain": 3969,
      "sion": 3970,
      "swell": 3971,
      "sore": 3972,
      "south": 3973,
      "vows": 3974,
      "yo": 3975,
      "thread": 3976,
      "ints": 3977,
      "island": 3978,
      "enforce": 3979,
      "ature": 3980,
      "atic": 3981,
      "melt": 3982,
      "esca": 3983,
      "nobl": 3984,
      "nobly": 3985,
      "rey": 3986,
      "rece": 3987,
      "rebell": 3988,
      "veins": 3989,
      "bethink": 3990,
      "forbear": 3991,
      "fords": 3992,
      "assured": 3993,
      "liament": 3994,
      "oot": 3995,
      "ades": 3996,
      "adver": 3997,
      "advice": 3998,
      "urged": 3999,
      "INAND": 4000,
      "raised": 4001,
      "unless": 4002,
      "unjust": 4003,
      "peers": 4004,
      "fears": 4005,
      "locks": 4006,
      "contempt": 4007,
      "shine": 4008,
      "points": 4009,
      "tame": 4010,
      "takes": 4011,
      "lovely": 4012,
      "perj": 4013,
      "perforce": 4014,
      "outs": 4015,
      "commission": 4016,
      "saying": 4017,
      "lets": 4018,
      "dile": 4019,
      "ague": 4020,
      "likely": 4021,
      "provo": 4022,
      "shoulder": 4023,
      "estate": 4024,
      "exam": 4025,
      "heavi": 4026,
      "tells": 4027,
      "whereof": 4028,
      "county": 4029,
      "afford": 4030,
      "hasty": 4031,
      "abhor": 4032,
      "served": 4033,
      "flow": 4034,
      "paid": 4035,
      "merri": 4036,
      "north": 4037,
      "daily": 4038,
      "warlike": 4039,
      "wrought": 4040,
      "score": 4041,
      "ruth": 4042,
      "ruly": 4043,
      "puts": 4044,
      "oppos": 4045,
      "begg": 4046,
      "begun": 4047,
      "trees": 4048,
      "braw": 4049,
      "parliament": 4050,
      "Until": 4051,
      "GREEN": 4052,
      "finds": 4053,
      "jewel": 4054,
      "afternoon": 4055,
      "shield": 4056,
      "carried": 4057,
      "current": 4058,
      "virgin": 4059,
      "greatest": 4060,
      "elder": 4061,
      "soundly": 4062,
      "wait": 4063,
      "accused": 4064,
      "according": 4065,
      "sends": 4066,
      "vault": 4067,
      "revenged": 4068,
      "hanged": 4069,
      "desert": 4070,
      "Rosal": 4071,
      "Conspir": 4072,
      "groans": 4073,
      "smiles": 4074,
      "single": 4075,
      "hardly": 4076,
      "silent": 4077,
      "ALONS": 4078,
      "instruments": 4079,
      "darest": 4080,
      "profan": 4081,
      "pieces": 4082,
      "stock": 4083,
      "study": 4084,
      "sickness": 4085,
      "waste": 4086,
      "Romans": 4087,
      "thrice": 4088,
      "Pomfret": 4089,
      "aboard": 4090,
      "grieve": 4091,
      "fires": 4092,
      "odd": 4093,
      "Keep": 4094,
      "imag": 4095
    },
    "merges": [
      [
        "t",
        "h"
      ],
      [
        "o",
        "u"
      ],
      [
        "e",
        "r"
      ],
      [
        "i",
        "n"
      ],
      [
        "a",
        "n"
      ],
      [
        "th",
        "e"
      ],
      [
        "o",
        "r"
      ],
      [
        "i",
        "s"
      ],
      [
        "e",
        "n"
      ],
      [
        "a",
        "r"
      ],
      [
        "a",
        "t"
      ],
      [
        "o",
        "n"
      ],
      [
        "s",
        "t"
      ],
      [
        "l",
        "l"
      ],
      [
        "m",
        "e"
      ],
      [
        "t",
        "o"
      ],
      [
        "an",
        "d"
      ],
      [
        "h",
        "e"
      ],
      [
        "y",
        "ou"
      ],
      [
        "e",
        "s"
      ],
      [
        "n",
        "o"
      ],
      [
        "s",
        "e"
      ],
      [
        "h",
        "a"
      ],
      [
        "r",
        "e"
      ],
      [
        "o",
        "f"
      ],
      [
        "v",
        "e"
      ],
      [
        "i",
        "t"
      ],
      [
        "in",
        "g"
      ],
      [
        "b",
        "e"
      ],
      [
        "l",
        "e"
      ],
      [
        "w",
        "i"
      ],
      [
        "m",
        "y"
      ],
      [
        "h",
        "i"
      ],
      [
        "o",
        "w"
      ],
      [
        "c",
        "e"
      ],
      [
        "f",
        "or"
      ],
      [
        "a",
        "y"
      ],
      [
        "a",
        "s"
      ],
      [
        "c",
        "h"
      ],
      [
        "n",
        "d"
      ],
      [
        "er",
        "e"
      ],
      [
        "l",
        "d"
      ],
      [
        "i",
        "r"
      ],
      [
        "e",
        "d"
      ],
      [
        "u",
        "t"
      ],
      [
        "r",
        "o"
      ],
      [
        "no",
        "t"
      ],
      [
        "l",
        "i"
      ],
      [
        "d",
        "e"
      ],
      [
        "w",
        "e"
      ],
      [
        "h",
        "at"
      ],
      [
        "th",
        "at"
      ],
      [
        "g",
        "h"
      ],
      [
        "A",
        "nd"
      ],
      [
        "k",
        "e"
      ],
      [
        "o",
        "o"
      ],
      [
        "ou",
        "r"
      ],
      [
        "wi",
        "th"
      ],
      [
        "o",
        "me"
      ],
      [
        "en",
        "t"
      ],
      [
        "h",
        "is"
      ],
      [
        "r",
        "i"
      ],
      [
        "you",
        "r"
      ],
      [
        "th",
        "ou"
      ],
      [
        "th",
        "er"
      ],
      [
        "a",
        "d"
      ],
      [
        "a",
        "l"
      ],
      [
        "e",
        "t"
      ],
      [
        "a",
        "ll"
      ],
      [
        "gh",
        "t"
      ],
      [
        "E",
        "N"
      ],
      [
        "u",
        "r"
      ],
      [
        "u",
        "s"
      ],
      [
        "ha",
        "ve"
      ],
      [
        "hi",
        "m"
      ],
      [
        "I",
        "N"
      ],
      [
        "l",
        "y"
      ],
      [
        "s",
        "o"
      ],
      [
        "r",
        "a"
      ],
      [
        "th",
        "is"
      ],
      [
        "I",
        "O"
      ],
      [
        "or",
        "d"
      ],
      [
        "d",
        "o"
      ],
      [
        "u",
        "n"
      ],
      [
        "h",
        "o"
      ],
      [
        "m",
        "a"
      ],
      [
        "es",
        "s"
      ],
      [
        "p",
        "e"
      ],
      [
        "f",
        "e"
      ],
      [
        "A",
        "R"
      ],
      [
        "ou",
        "ld"
      ],
      [
        "ar",
        "e"
      ],
      [
        "l",
        "o"
      ],
      [
        "h",
        "ere"
      ],
      [
        "oo",
        "d"
      ],
      [
        "i",
        "d"
      ],
      [
        "th",
        "y"
      ],
      [
        "v",
        "er"
      ],
      [
        "f",
        "a"
      ],
      [
        "c",
        "k"
      ],
      [
        "on",
        "e"
      ],
      [
        "m",
        "an"
      ],
      [
        "t",
        "i"
      ],
      [
        "T",
        "he"
      ],
      [
        "s",
        "ha"
      ],
      [
        "no",
        "w"
      ],
      [
        "a",
        "m"
      ],
      [
        "wi",
        "ll"
      ],
      [
        "n",
        "e"
      ],
      [
        "g",
        "e"
      ],
      [
        "a",
        "in"
      ],
      [
        "b",
        "ut"
      ],
      [
        "s",
        "u"
      ],
      [
        "ar",
        "d"
      ],
      [
        "h",
        "er"
      ],
      [
        "U",
        "S"
      ],
      [
        "t",
        "er"
      ],
      [
        "c",
        "on"
      ],
      [
        "p",
        "r"
      ],
      [
        "T",
        "h"
      ],
      [
        "T",
        "o"
      ],
      [
        "en",
        "d"
      ],
      [
        "b",
        "y"
      ],
      [
        "the",
        "e"
      ],
      [
        "u",
        "e"
      ],
      [
        "o",
        "m"
      ],
      [
        "l",
        "a"
      ],
      [
        "sha",
        "ll"
      ],
      [
        "ar",
        "t"
      ],
      [
        "m",
        "or"
      ],
      [
        "u",
        "p"
      ],
      [
        "U",
        "C"
      ],
      [
        "s",
        "h"
      ],
      [
        "c",
        "ome"
      ],
      [
        "p",
        "o"
      ],
      [
        "IN",
        "G"
      ],
      [
        "ro",
        "m"
      ],
      [
        "ow",
        "n"
      ],
      [
        "A",
        "N"
      ],
      [
        "u",
        "st"
      ],
      [
        "T",
        "hat"
      ],
      [
        "t",
        "a"
      ],
      [
        "t",
        "r"
      ],
      [
        "w",
        "hat"
      ],
      [
        "E",
        "R"
      ],
      [
        "O",
        "R"
      ],
      [
        "ou",
        "s"
      ],
      [
        "m",
        "o"
      ],
      [
        "se",
        "l"
      ],
      [
        "E",
        "T"
      ],
      [
        "t",
        "e"
      ],
      [
        "E",
        "S"
      ],
      [
        "g",
        "o"
      ],
      [
        "g",
        "ood"
      ],
      [
        "i",
        "f"
      ],
      [
        "i",
        "ll"
      ],
      [
        "B",
        "ut"
      ],
      [
        "in",
        "e"
      ],
      [
        "a",
        "th"
      ],
      [
        "h",
        "en"
      ],
      [
        "b",
        "le"
      ],
      [
        "i",
        "ght"
      ],
      [
        "l",
        "ord"
      ],
      [
        "i",
        "on"
      ],
      [
        "hi",
        "ch"
      ],
      [
        "k",
        "ing"
      ],
      [
        "W",
        "hat"
      ],
      [
        "w",
        "as"
      ],
      [
        "b",
        "o"
      ],
      [
        "i",
        "l"
      ],
      [
        "an",
        "t"
      ],
      [
        "K",
        "ING"
      ],
      [
        "v",
        "en"
      ],
      [
        "s",
        "he"
      ],
      [
        "c",
        "a"
      ],
      [
        "u",
        "l"
      ],
      [
        "f",
        "rom"
      ],
      [
        "b",
        "l"
      ],
      [
        "on",
        "g"
      ],
      [
        "mor",
        "e"
      ],
      [
        "F",
        "or"
      ],
      [
        "we",
        "ll"
      ],
      [
        "s",
        "a"
      ],
      [
        "the",
        "m"
      ],
      [
        "I",
        "C"
      ],
      [
        "a",
        "k"
      ],
      [
        "s",
        "ir"
      ],
      [
        "sel",
        "f"
      ],
      [
        "in",
        "d"
      ],
      [
        "w",
        "ould"
      ],
      [
        "th",
        "ere"
      ],
      [
        "w",
        "or"
      ],
      [
        "lo",
        "ve"
      ],
      [
        "c",
        "an"
      ],
      [
        "k",
        "now"
      ],
      [
        "p",
        "er"
      ],
      [
        "c",
        "t"
      ],
      [
        "ou",
        "t"
      ],
      [
        "i",
        "ve"
      ],
      [
        "E",
        "L"
      ],
      [
        "at",
        "e"
      ],
      [
        "c",
        "om"
      ],
      [
        "s",
        "ay"
      ],
      [
        "the",
        "n"
      ],
      [
        "se",
        "e"
      ],
      [
        "I",
        "US"
      ],
      [
        "le",
        "t"
      ],
      [
        "AR",
        "D"
      ],
      [
        "the",
        "ir"
      ],
      [
        "M",
        "y"
      ],
      [
        "d",
        "i"
      ],
      [
        "th",
        "an"
      ],
      [
        "c",
        "i"
      ],
      [
        "r",
        "y"
      ],
      [
        "-",
        "-"
      ],
      [
        "the",
        "y"
      ],
      [
        "for",
        "e"
      ],
      [
        "en",
        "ce"
      ],
      [
        "a",
        "g"
      ],
      [
        "e",
        "p"
      ],
      [
        "e",
        "ar"
      ],
      [
        "li",
        "ke"
      ],
      [
        "s",
        "pe"
      ],
      [
        "G",
        "o"
      ],
      [
        "er",
        "s"
      ],
      [
        "h",
        "y"
      ],
      [
        "m",
        "ay"
      ],
      [
        "L",
        "O"
      ],
      [
        "b",
        "ro"
      ],
      [
        "u",
        "m"
      ],
      [
        "w",
        "ere"
      ],
      [
        "w",
        "ay"
      ],
      [
        "A",
        "s"
      ],
      [
        "p",
        "ro"
      ],
      [
        "a",
        "st"
      ],
      [
        "W",
        "e"
      ],
      [
        "v",
        "es"
      ],
      [
        "is",
        "h"
      ],
      [
        "in",
        "k"
      ],
      [
        "K",
        "E"
      ],
      [
        "ti",
        "me"
      ],
      [
        "ha",
        "th"
      ],
      [
        "I",
        "I"
      ],
      [
        "q",
        "u"
      ],
      [
        "N",
        "o"
      ],
      [
        "u",
        "re"
      ],
      [
        "ir",
        "st"
      ],
      [
        "H",
        "e"
      ],
      [
        "ma",
        "ke"
      ],
      [
        "o",
        "l"
      ],
      [
        "p",
        "le"
      ],
      [
        "Y",
        "ou"
      ],
      [
        "w",
        "ho"
      ],
      [
        "th",
        "ing"
      ],
      [
        "r",
        "ow"
      ],
      [
        "m",
        "ust"
      ],
      [
        "g",
        "ra"
      ],
      [
        "ou",
        "nd"
      ],
      [
        "i",
        "th"
      ],
      [
        "a",
        "p"
      ],
      [
        "a",
        "ve"
      ],
      [
        "s",
        "ome"
      ],
      [
        "oo",
        "k"
      ],
      [
        "sh",
        "ould"
      ],
      [
        "O",
        "L"
      ],
      [
        "fa",
        "ther"
      ],
      [
        "f",
        "i"
      ],
      [
        "L",
        "A"
      ],
      [
        "R",
        "O"
      ],
      [
        "T",
        "IO"
      ],
      [
        "u",
        "se"
      ],
      [
        "it",
        "y"
      ],
      [
        "to",
        "o"
      ],
      [
        "ha",
        "d"
      ],
      [
        "up",
        "on"
      ],
      [
        "s",
        "on"
      ],
      [
        "d",
        "id"
      ],
      [
        "C",
        "A"
      ],
      [
        "d",
        "ay"
      ],
      [
        "i",
        "g"
      ],
      [
        "an",
        "ce"
      ],
      [
        "w",
        "ard"
      ],
      [
        "O",
        "N"
      ],
      [
        "d",
        "is"
      ],
      [
        "h",
        "ow"
      ],
      [
        "w",
        "o"
      ],
      [
        "w",
        "hich"
      ],
      [
        "de",
        "ath"
      ],
      [
        "ou",
        "n"
      ],
      [
        "re",
        "at"
      ],
      [
        "I",
        "S"
      ],
      [
        "w",
        "ord"
      ],
      [
        "f",
        "ri"
      ],
      [
        "I",
        "f"
      ],
      [
        "s",
        "p"
      ],
      [
        "w",
        "hen"
      ],
      [
        "e",
        "st"
      ],
      [
        "m",
        "en"
      ],
      [
        "spe",
        "ak"
      ],
      [
        "ent",
        "le"
      ],
      [
        "I",
        "n"
      ],
      [
        "he",
        "art"
      ],
      [
        "IC",
        "H"
      ],
      [
        "ag",
        "ain"
      ],
      [
        "R",
        "ICH"
      ],
      [
        "f",
        "ul"
      ],
      [
        "v",
        "i"
      ],
      [
        "D",
        "U"
      ],
      [
        "DU",
        "KE"
      ],
      [
        "h",
        "and"
      ],
      [
        "y",
        "et"
      ],
      [
        "o",
        "ld"
      ],
      [
        "m",
        "ar"
      ],
      [
        "e",
        "l"
      ],
      [
        "Th",
        "ou"
      ],
      [
        "U",
        "L"
      ],
      [
        "m",
        "ine"
      ],
      [
        "ver",
        "y"
      ],
      [
        "th",
        "ink"
      ],
      [
        "RICH",
        "ARD"
      ],
      [
        "EN",
        "TIO"
      ],
      [
        "ta",
        "ke"
      ],
      [
        "W",
        "hich"
      ],
      [
        "p",
        "l"
      ],
      [
        "s",
        "i"
      ],
      [
        "s",
        "we"
      ],
      [
        "a",
        "c"
      ],
      [
        "Go",
        "d"
      ],
      [
        "he",
        "ar"
      ],
      [
        "B",
        "e"
      ],
      [
        "W",
        "ith"
      ],
      [
        "in",
        "ce"
      ],
      [
        "IN",
        "C"
      ],
      [
        "st",
        "r"
      ],
      [
        "ig",
        "n"
      ],
      [
        "W",
        "hy"
      ],
      [
        "g",
        "ive"
      ],
      [
        "O",
        "f"
      ],
      [
        "n",
        "a"
      ],
      [
        "su",
        "ch"
      ],
      [
        "F",
        "irst"
      ],
      [
        "l",
        "and"
      ],
      [
        "an",
        "g"
      ],
      [
        "A",
        "B"
      ],
      [
        "n",
        "ess"
      ],
      [
        "u",
        "ch"
      ],
      [
        "mo",
        "st"
      ],
      [
        "bl",
        "ood"
      ],
      [
        "d",
        "es"
      ],
      [
        "e",
        "x"
      ],
      [
        "st",
        "er"
      ],
      [
        "bro",
        "ther"
      ],
      [
        "b",
        "r"
      ],
      [
        "the",
        "se"
      ],
      [
        "he",
        "a"
      ],
      [
        "te",
        "ll"
      ],
      [
        "t",
        "is"
      ],
      [
        "an",
        "y"
      ],
      [
        "b",
        "a"
      ],
      [
        "e",
        "y"
      ],
      [
        "U",
        "E"
      ],
      [
        "is",
        "e"
      ],
      [
        "on",
        "our"
      ],
      [
        "b",
        "re"
      ],
      [
        "o",
        "ther"
      ],
      [
        "i",
        "m"
      ],
      [
        "w",
        "here"
      ],
      [
        "H",
        "ow"
      ],
      [
        "q",
        "ue"
      ],
      [
        "ll",
        "ow"
      ],
      [
        "C",
        "ome"
      ],
      [
        "l",
        "ess"
      ],
      [
        "t",
        "y"
      ],
      [
        "ar",
        "m"
      ],
      [
        "li",
        "fe"
      ],
      [
        "T",
        "his"
      ],
      [
        "T",
        "ER"
      ],
      [
        "c",
        "oun"
      ],
      [
        "l",
        "ook"
      ],
      [
        "ne",
        "w"
      ],
      [
        "S",
        "o"
      ],
      [
        "or",
        "t"
      ],
      [
        "UC",
        "H"
      ],
      [
        "W",
        "ho"
      ],
      [
        "fri",
        "end"
      ],
      [
        "g",
        "entle"
      ],
      [
        "ou",
        "l"
      ],
      [
        "G",
        "LO"
      ],
      [
        "u",
        "ght"
      ],
      [
        "v",
        "o"
      ],
      [
        "UC",
        "ES"
      ],
      [
        "GLO",
        "UCES"
      ],
      [
        "GLOUCES",
        "TER"
      ],
      [
        "c",
        "hi"
      ],
      [
        "ar",
        "s"
      ],
      [
        "a",
        "f"
      ],
      [
        "m",
        "is"
      ],
      [
        "v",
        "ing"
      ],
      [
        "ha",
        "st"
      ],
      [
        "ad",
        "y"
      ],
      [
        "L",
        "ord"
      ],
      [
        "a",
        "b"
      ],
      [
        "ur",
        "se"
      ],
      [
        "t",
        "s"
      ],
      [
        "R",
        "ome"
      ],
      [
        "R",
        "Y"
      ],
      [
        "n",
        "ight"
      ],
      [
        "r",
        "own"
      ],
      [
        "of",
        "f"
      ],
      [
        "fa",
        "ir"
      ],
      [
        "ma",
        "de"
      ],
      [
        "a",
        "ge"
      ],
      [
        "L",
        "E"
      ],
      [
        "Q",
        "UE"
      ],
      [
        "V",
        "INC"
      ],
      [
        "QUE",
        "EN"
      ],
      [
        "VINC",
        "ENTIO"
      ],
      [
        "h",
        "onour"
      ],
      [
        "O",
        "F"
      ],
      [
        "S",
        "e"
      ],
      [
        "m",
        "uch"
      ],
      [
        "an",
        "s"
      ],
      [
        "ti",
        "on"
      ],
      [
        "on",
        "d"
      ],
      [
        "I",
        "s"
      ],
      [
        "W",
        "here"
      ],
      [
        "li",
        "e"
      ],
      [
        "ur",
        "n"
      ],
      [
        "U",
        "M"
      ],
      [
        "L",
        "AN"
      ],
      [
        "st",
        "and"
      ],
      [
        "M",
        "ar"
      ],
      [
        "p",
        "re"
      ],
      [
        "H",
        "EN"
      ],
      [
        "con",
        "d"
      ],
      [
        "N",
        "ow"
      ],
      [
        "c",
        "he"
      ],
      [
        "na",
        "me"
      ],
      [
        "t",
        "le"
      ],
      [
        "e",
        "m"
      ],
      [
        "e",
        "f"
      ],
      [
        "HEN",
        "RY"
      ],
      [
        "n",
        "g"
      ],
      [
        "b",
        "er"
      ],
      [
        "p",
        "art"
      ],
      [
        "ne",
        "ver"
      ],
      [
        "fe",
        "ar"
      ],
      [
        "i",
        "o"
      ],
      [
        "Y",
        "our"
      ],
      [
        "c",
        "es"
      ],
      [
        "i",
        "es"
      ],
      [
        "l",
        "t"
      ],
      [
        "li",
        "ve"
      ],
      [
        "ow",
        "er"
      ],
      [
        "j",
        "o"
      ],
      [
        "s",
        "er"
      ],
      [
        "u",
        "ke"
      ],
      [
        "I",
        "t"
      ],
      [
        "c",
        "all"
      ],
      [
        "g",
        "reat"
      ],
      [
        "as",
        "s"
      ],
      [
        "Y",
        "OR"
      ],
      [
        "f",
        "o"
      ],
      [
        "he",
        "ad"
      ],
      [
        "YOR",
        "K"
      ],
      [
        "re",
        "e"
      ],
      [
        "m",
        "ent"
      ],
      [
        "u",
        "nd"
      ],
      [
        "O",
        "r"
      ],
      [
        "at",
        "ion"
      ],
      [
        "IN",
        "IUS"
      ],
      [
        "e",
        "ver"
      ],
      [
        "pr",
        "ay"
      ],
      [
        "can",
        "not"
      ],
      [
        "re",
        "d"
      ],
      [
        "tr",
        "ue"
      ],
      [
        "hea",
        "ven"
      ],
      [
        "P",
        "ET"
      ],
      [
        "a",
        "se"
      ],
      [
        "no",
        "ble"
      ],
      [
        "f",
        "l"
      ],
      [
        "p",
        "a"
      ],
      [
        "be",
        "en"
      ],
      [
        "swe",
        "et"
      ],
      [
        "for",
        "t"
      ],
      [
        "A",
        "n"
      ],
      [
        "D",
        "W"
      ],
      [
        "E",
        "DW"
      ],
      [
        "c",
        "o"
      ],
      [
        "EDW",
        "ARD"
      ],
      [
        "G",
        "R"
      ],
      [
        "d",
        "one"
      ],
      [
        "m",
        "er"
      ],
      [
        "be",
        "t"
      ],
      [
        ",",
        "--"
      ],
      [
        "T",
        "H"
      ],
      [
        "do",
        "th"
      ],
      [
        "i",
        "z"
      ],
      [
        "n",
        "or"
      ],
      [
        "ou",
        "gh"
      ],
      [
        "L",
        "UC"
      ],
      [
        "M",
        "EN"
      ],
      [
        "p",
        "t"
      ],
      [
        "r",
        "es"
      ],
      [
        "A",
        "y"
      ],
      [
        "d",
        "a"
      ],
      [
        "p",
        "p"
      ],
      [
        "u",
        "ll"
      ],
      [
        "w",
        "ar"
      ],
      [
        "ou",
        "se"
      ],
      [
        "T",
        "here"
      ],
      [
        "i",
        "e"
      ],
      [
        "com",
        "m"
      ],
      [
        "g",
        "r"
      ],
      [
        "in",
        "t"
      ],
      [
        "W",
        "hen"
      ],
      [
        "re",
        "st"
      ],
      [
        "E",
        "d"
      ],
      [
        "w",
        "r"
      ],
      [
        "be",
        "ar"
      ],
      [
        "M",
        "E"
      ],
      [
        "U",
        "T"
      ],
      [
        "gra",
        "ce"
      ],
      [
        "s",
        "oul"
      ],
      [
        "be",
        "fore"
      ],
      [
        "RO",
        "ME"
      ],
      [
        "Ed",
        "ward"
      ],
      [
        "ROME",
        "O"
      ],
      [
        "B",
        "y"
      ],
      [
        "s",
        "c"
      ],
      [
        "s",
        "s"
      ],
      [
        "EN",
        "IUS"
      ],
      [
        "bo",
        "th"
      ],
      [
        "wor",
        "ld"
      ],
      [
        "MEN",
        "ENIUS"
      ],
      [
        "R",
        "i"
      ],
      [
        "que",
        "en"
      ],
      [
        "a",
        "ce"
      ],
      [
        "H",
        "ere"
      ],
      [
        "L",
        "et"
      ],
      [
        "Th",
        "en"
      ],
      [
        "come",
        "s"
      ],
      [
        "ught",
        "er"
      ],
      [
        "R",
        "UCH"
      ],
      [
        "d",
        "own"
      ],
      [
        "p",
        "ri"
      ],
      [
        "or",
        "n"
      ],
      [
        "de",
        "ad"
      ],
      [
        "PET",
        "RUCH"
      ],
      [
        "PETRUCH",
        "IO"
      ],
      [
        "O",
        "M"
      ],
      [
        "ing",
        "s"
      ],
      [
        "T",
        "ES"
      ],
      [
        "l",
        "ong"
      ],
      [
        "ve",
        "d"
      ],
      [
        "it",
        "e"
      ],
      [
        "pr",
        "es"
      ],
      [
        "a",
        "ke"
      ],
      [
        "i",
        "ce"
      ],
      [
        "be",
        "ing"
      ],
      [
        "wi",
        "ck"
      ],
      [
        "Th",
        "an"
      ],
      [
        "r",
        "u"
      ],
      [
        "le",
        "ave"
      ],
      [
        "my",
        "self"
      ],
      [
        "ho",
        "ld"
      ],
      [
        "mo",
        "ther"
      ],
      [
        "C",
        "l"
      ],
      [
        "H",
        "A"
      ],
      [
        "M",
        "AR"
      ],
      [
        "or",
        "e"
      ],
      [
        "se",
        "t"
      ],
      [
        "c",
        "our"
      ],
      [
        "h",
        "ouse"
      ],
      [
        "p",
        "ut"
      ],
      [
        "th",
        "us"
      ],
      [
        "ca",
        "use"
      ],
      [
        "C",
        "OR"
      ],
      [
        "I",
        "Z"
      ],
      [
        "o",
        "p"
      ],
      [
        "re",
        "t"
      ],
      [
        "IO",
        "LAN"
      ],
      [
        "COR",
        "IOLAN"
      ],
      [
        "CORIOLAN",
        "US"
      ],
      [
        "N",
        "or"
      ],
      [
        "t",
        "ri"
      ],
      [
        "wi",
        "fe"
      ],
      [
        "Se",
        "cond"
      ],
      [
        "d",
        "er"
      ],
      [
        "u",
        "ck"
      ],
      [
        "w",
        "hi"
      ],
      [
        "be",
        "g"
      ],
      [
        "ey",
        "es"
      ],
      [
        "de",
        "ed"
      ],
      [
        "thou",
        "ght"
      ],
      [
        "B",
        "A"
      ],
      [
        "c",
        "l"
      ],
      [
        "Ri",
        "ch"
      ],
      [
        "d",
        "y"
      ],
      [
        "chi",
        "ld"
      ],
      [
        "IN",
        "A"
      ],
      [
        "po",
        "or"
      ],
      [
        "D",
        "o"
      ],
      [
        "S",
        "he"
      ],
      [
        "it",
        "iz"
      ],
      [
        "di",
        "e"
      ],
      [
        "itiz",
        "en"
      ],
      [
        "f",
        "oo"
      ],
      [
        "t",
        "ra"
      ],
      [
        "le",
        "d"
      ],
      [
        "a",
        "way"
      ],
      [
        "I",
        "V"
      ],
      [
        "ri",
        "ght"
      ],
      [
        "friend",
        "s"
      ],
      [
        "d",
        "s"
      ],
      [
        "II",
        "I"
      ],
      [
        "S",
        "ir"
      ],
      [
        "m",
        "ight"
      ],
      [
        "c",
        "rown"
      ],
      [
        "k",
        "s"
      ],
      [
        "p",
        "la"
      ],
      [
        "at",
        "ch"
      ],
      [
        "at",
        "ter"
      ],
      [
        "st",
        "ay"
      ],
      [
        "li",
        "ght"
      ],
      [
        "b",
        "id"
      ],
      [
        "t",
        "en"
      ],
      [
        "man",
        "y"
      ],
      [
        "W",
        "ar"
      ],
      [
        "f",
        "t"
      ],
      [
        "in",
        "s"
      ],
      [
        "War",
        "wick"
      ],
      [
        "a",
        "ch"
      ],
      [
        "g",
        "ri"
      ],
      [
        "l",
        "it"
      ],
      [
        "H",
        "is"
      ],
      [
        "t",
        "re"
      ],
      [
        "T",
        "is"
      ],
      [
        "p",
        "s"
      ],
      [
        "is",
        "on"
      ],
      [
        "po",
        "se"
      ],
      [
        "EL",
        "LA"
      ],
      [
        "ci",
        "ous"
      ],
      [
        "IS",
        "AB"
      ],
      [
        "ISAB",
        "ELLA"
      ],
      [
        "m",
        "i"
      ],
      [
        "an",
        "ge"
      ],
      [
        "no",
        "thing"
      ],
      [
        "Rome",
        "o"
      ],
      [
        "da",
        "ughter"
      ],
      [
        "R",
        "AN"
      ],
      [
        "b",
        "ra"
      ],
      [
        "g",
        "one"
      ],
      [
        "k",
        "ind"
      ],
      [
        "t",
        "al"
      ],
      [
        "t",
        "ong"
      ],
      [
        "fa",
        "ce"
      ],
      [
        "We",
        "ll"
      ],
      [
        "m",
        "ad"
      ],
      [
        "bet",
        "ter"
      ],
      [
        "I",
        "ET"
      ],
      [
        "J",
        "UL"
      ],
      [
        "k",
        "es"
      ],
      [
        "o",
        "se"
      ],
      [
        "p",
        "ar"
      ],
      [
        "for",
        "d"
      ],
      [
        "ti",
        "ll"
      ],
      [
        "ON",
        "TES"
      ],
      [
        "LE",
        "ONTES"
      ],
      [
        "JUL",
        "IET"
      ],
      [
        "N",
        "ay"
      ],
      [
        "V",
        "I"
      ],
      [
        "g",
        "u"
      ],
      [
        "en",
        "g"
      ],
      [
        "thou",
        "gh"
      ],
      [
        "pr",
        "ince"
      ],
      [
        "word",
        "s"
      ],
      [
        "I",
        "L"
      ],
      [
        "t",
        "ed"
      ],
      [
        "D",
        "Y"
      ],
      [
        "a",
        "ble"
      ],
      [
        "or",
        "s"
      ],
      [
        "un",
        "e"
      ],
      [
        "ear",
        "s"
      ],
      [
        "LA",
        "DY"
      ],
      [
        "C",
        "E"
      ],
      [
        "S",
        "T"
      ],
      [
        "V",
        "OL"
      ],
      [
        "w",
        "er"
      ],
      [
        "EN",
        "CE"
      ],
      [
        "sh",
        "ow"
      ],
      [
        "B",
        "R"
      ],
      [
        "T",
        "A"
      ],
      [
        "b",
        "an"
      ],
      [
        "i",
        "ther"
      ],
      [
        "t",
        "end"
      ],
      [
        "new",
        "s"
      ],
      [
        "C",
        "L"
      ],
      [
        "C",
        "itizen"
      ],
      [
        "S",
        "er"
      ],
      [
        "i",
        "c"
      ],
      [
        "s",
        "ent"
      ],
      [
        "be",
        "st"
      ],
      [
        "ur",
        "der"
      ],
      [
        "again",
        "st"
      ],
      [
        "P",
        "ro"
      ],
      [
        "th",
        "ose"
      ],
      [
        "jo",
        "y"
      ],
      [
        "S",
        "IC"
      ],
      [
        "b",
        "and"
      ],
      [
        "h",
        "our"
      ],
      [
        "s",
        "le"
      ],
      [
        "hen",
        "ce"
      ],
      [
        "lord",
        "s"
      ],
      [
        "lit",
        "tle"
      ],
      [
        "SIC",
        "INIUS"
      ],
      [
        "f",
        "ar"
      ],
      [
        "t",
        "ent"
      ],
      [
        "S",
        "ha"
      ],
      [
        "c",
        "y"
      ],
      [
        "c",
        "tion"
      ],
      [
        "ard",
        "on"
      ],
      [
        "U",
        "n"
      ],
      [
        "p",
        "ur"
      ],
      [
        "ke",
        "ep"
      ],
      [
        "t",
        "ain"
      ],
      [
        "t",
        "wo"
      ],
      [
        "st",
        "ill"
      ],
      [
        "he",
        "l"
      ],
      [
        "ch",
        "ar"
      ],
      [
        "de",
        "ar"
      ],
      [
        "la",
        "w"
      ],
      [
        "GR",
        "E"
      ],
      [
        "d",
        "en"
      ],
      [
        "p",
        "ower"
      ],
      [
        "me",
        "an"
      ],
      [
        "for",
        "th"
      ],
      [
        "ro",
        "y"
      ],
      [
        "him",
        "self"
      ],
      [
        "No",
        "t"
      ],
      [
        "f",
        "ull"
      ],
      [
        "Th",
        "y"
      ],
      [
        "ba",
        "ck"
      ],
      [
        "LUC",
        "IO"
      ],
      [
        "it",
        "s"
      ],
      [
        "un",
        "to"
      ],
      [
        "su",
        "b"
      ],
      [
        "Rich",
        "ard"
      ],
      [
        "H",
        "ave"
      ],
      [
        "e",
        "ch"
      ],
      [
        "pe",
        "ace"
      ],
      [
        "there",
        "fore"
      ],
      [
        "W",
        "ill"
      ],
      [
        "b",
        "es"
      ],
      [
        "f",
        "irst"
      ],
      [
        "r",
        "en"
      ],
      [
        "in",
        "ess"
      ],
      [
        "el",
        "se"
      ],
      [
        "tong",
        "ue"
      ],
      [
        "Y",
        "or"
      ],
      [
        "c",
        "ould"
      ],
      [
        "d",
        "uke"
      ],
      [
        "hi",
        "gh"
      ],
      [
        "as",
        "on"
      ],
      [
        "ri",
        "ed"
      ],
      [
        "ho",
        "pe"
      ],
      [
        "c",
        "ut"
      ],
      [
        "h",
        "us"
      ],
      [
        "ou",
        "ght"
      ],
      [
        "ar",
        "k"
      ],
      [
        "ne",
        "ed"
      ],
      [
        "con",
        "f"
      ],
      [
        "f",
        "ind"
      ],
      [
        "l",
        "ady"
      ],
      [
        "n",
        "at"
      ],
      [
        "th",
        "ine"
      ],
      [
        "you",
        "ng"
      ],
      [
        "ET",
        "H"
      ],
      [
        "EL",
        "IZ"
      ],
      [
        "ear",
        "th"
      ],
      [
        "AB",
        "ETH"
      ],
      [
        "und",
        "er"
      ],
      [
        "Yor",
        "k"
      ],
      [
        "ELIZ",
        "ABETH"
      ],
      [
        "G",
        "ood"
      ],
      [
        "c",
        "ha"
      ],
      [
        "d",
        "re"
      ],
      [
        "th",
        "r"
      ],
      [
        "ca",
        "me"
      ],
      [
        "I",
        "AN"
      ],
      [
        "g",
        "et"
      ],
      [
        "h",
        "ome"
      ],
      [
        "j",
        "e"
      ],
      [
        "j",
        "ust"
      ],
      [
        "m",
        "ind"
      ],
      [
        "o",
        "ple"
      ],
      [
        "r",
        "an"
      ],
      [
        "ma",
        "ster"
      ],
      [
        "H",
        "en"
      ],
      [
        "Y",
        "et"
      ],
      [
        "on",
        "ce"
      ],
      [
        "pe",
        "ople"
      ],
      [
        "hus",
        "band"
      ],
      [
        "Hen",
        "ry"
      ],
      [
        "I",
        "A"
      ],
      [
        "p",
        "ass"
      ],
      [
        "are",
        "well"
      ],
      [
        "see",
        "m"
      ],
      [
        "pla",
        "ce"
      ],
      [
        "P",
        "ER"
      ],
      [
        "l",
        "ay"
      ],
      [
        "s",
        "or"
      ],
      [
        "ha",
        "pp"
      ],
      [
        "qu",
        "i"
      ],
      [
        "af",
        "ter"
      ],
      [
        "A",
        "ll"
      ],
      [
        "W",
        "AR"
      ],
      [
        "W",
        "IC"
      ],
      [
        "c",
        "le"
      ],
      [
        "f",
        "all"
      ],
      [
        "st",
        "e"
      ],
      [
        "Sha",
        "ll"
      ],
      [
        "WAR",
        "WIC"
      ],
      [
        "WARWIC",
        "K"
      ],
      [
        "v",
        "ant"
      ],
      [
        "w",
        "hy"
      ],
      [
        "is",
        "ter"
      ],
      [
        "be",
        "d"
      ],
      [
        "we",
        "l"
      ],
      [
        "fe",
        "llow"
      ],
      [
        "fo",
        "llow"
      ],
      [
        "N",
        "urse"
      ],
      [
        "la",
        "st"
      ],
      [
        "n",
        "one"
      ],
      [
        "The",
        "y"
      ],
      [
        "ple",
        "ase"
      ],
      [
        "HA",
        "M"
      ],
      [
        "P",
        "UL"
      ],
      [
        "d",
        "r"
      ],
      [
        "g",
        "i"
      ],
      [
        "h",
        "or"
      ],
      [
        "p",
        "ardon"
      ],
      [
        "re",
        "p"
      ],
      [
        "hi",
        "ther"
      ],
      [
        "mor",
        "row"
      ],
      [
        "tr",
        "u"
      ],
      [
        "sa",
        "id"
      ],
      [
        "CA",
        "PUL"
      ],
      [
        "CAPUL",
        "ET"
      ],
      [
        "b",
        "u"
      ],
      [
        "d",
        "ou"
      ],
      [
        "e",
        "very"
      ],
      [
        "g",
        "l"
      ],
      [
        "ou",
        "d"
      ],
      [
        "hand",
        "s"
      ],
      [
        "br",
        "ing"
      ],
      [
        "M",
        "IO"
      ],
      [
        "g",
        "ue"
      ],
      [
        "k",
        "ill"
      ],
      [
        "p",
        "at"
      ],
      [
        "ous",
        "in"
      ],
      [
        "bo",
        "y"
      ],
      [
        "wo",
        "man"
      ],
      [
        "s",
        "hi"
      ],
      [
        "sha",
        "me"
      ],
      [
        "tr",
        "y"
      ],
      [
        "B",
        "UC"
      ],
      [
        "c",
        "ent"
      ],
      [
        "m",
        "ber"
      ],
      [
        "he",
        "ard"
      ],
      [
        "te",
        "m"
      ],
      [
        "KING",
        "HAM"
      ],
      [
        "UT",
        "US"
      ],
      [
        "BR",
        "UTUS"
      ],
      [
        "BUC",
        "KINGHAM"
      ],
      [
        "B",
        "OL"
      ],
      [
        "B",
        "RO"
      ],
      [
        "F",
        "rom"
      ],
      [
        "T",
        "RAN"
      ],
      [
        "b",
        "us"
      ],
      [
        "c",
        "lo"
      ],
      [
        "d",
        "ra"
      ],
      [
        "f",
        "f"
      ],
      [
        "i",
        "us"
      ],
      [
        "j",
        "est"
      ],
      [
        "at",
        "es"
      ],
      [
        "ING",
        "BRO"
      ],
      [
        "ES",
        "S"
      ],
      [
        "LA",
        "U"
      ],
      [
        "BOL",
        "INGBRO"
      ],
      [
        "TRAN",
        "IO"
      ],
      [
        "BOLINGBRO",
        "KE"
      ],
      [
        "M",
        "IL"
      ],
      [
        "c",
        "ar"
      ],
      [
        "s",
        "and"
      ],
      [
        "ut",
        "y"
      ],
      [
        "te",
        "ars"
      ],
      [
        "who",
        "se"
      ],
      [
        "vo",
        "st"
      ],
      [
        "pres",
        "ent"
      ],
      [
        "O",
        "ur"
      ],
      [
        "T",
        "IS"
      ],
      [
        "b",
        "ri"
      ],
      [
        "k",
        "en"
      ],
      [
        "v",
        "y"
      ],
      [
        "ma",
        "id"
      ],
      [
        "com",
        "p"
      ],
      [
        "roy",
        "al"
      ],
      [
        "c",
        "er"
      ],
      [
        "c",
        "ur"
      ],
      [
        "c",
        "ess"
      ],
      [
        "s",
        "en"
      ],
      [
        "s",
        "ince"
      ],
      [
        "w",
        "it"
      ],
      [
        "st",
        "ate"
      ],
      [
        "la",
        "ck"
      ],
      [
        "wr",
        "ong"
      ],
      [
        "G",
        "AR"
      ],
      [
        "K",
        "ing"
      ],
      [
        "N",
        "E"
      ],
      [
        "f",
        "al"
      ],
      [
        "g",
        "ar"
      ],
      [
        "me",
        "et"
      ],
      [
        "MAR",
        "GAR"
      ],
      [
        "sor",
        "row"
      ],
      [
        "MARGAR",
        "ET"
      ],
      [
        "A",
        "TH"
      ],
      [
        "g",
        "ain"
      ],
      [
        "s",
        "un"
      ],
      [
        "pr",
        "ison"
      ],
      [
        "ey",
        "e"
      ],
      [
        "O",
        "n"
      ],
      [
        "v",
        "ir"
      ],
      [
        "who",
        "m"
      ],
      [
        "CA",
        "L"
      ],
      [
        "whi",
        "le"
      ],
      [
        "hel",
        "p"
      ],
      [
        "B",
        "o"
      ],
      [
        "G",
        "EL"
      ],
      [
        "H",
        "OR"
      ],
      [
        "g",
        "en"
      ],
      [
        "l",
        "es"
      ],
      [
        "n",
        "ing"
      ],
      [
        "p",
        "i"
      ],
      [
        "t",
        "ing"
      ],
      [
        "v",
        "ere"
      ],
      [
        "x",
        "t"
      ],
      [
        "re",
        "me"
      ],
      [
        "it",
        "ion"
      ],
      [
        "thou",
        "sand"
      ],
      [
        "AN",
        "GEL"
      ],
      [
        "tr",
        "ess"
      ],
      [
        "OR",
        "D"
      ],
      [
        "sel",
        "ves"
      ],
      [
        "gra",
        "cious"
      ],
      [
        "ab",
        "out"
      ],
      [
        "ans",
        "wer"
      ],
      [
        "Cl",
        "ar"
      ],
      [
        "ANGEL",
        "O"
      ],
      [
        "C",
        "U"
      ],
      [
        "E",
        "ng"
      ],
      [
        "g",
        "re"
      ],
      [
        "v",
        "il"
      ],
      [
        "is",
        "s"
      ],
      [
        "li",
        "es"
      ],
      [
        "we",
        "ep"
      ],
      [
        "AR",
        "INA"
      ],
      [
        "foo",
        "l"
      ],
      [
        "Clar",
        "ence"
      ],
      [
        "K",
        "ATH"
      ],
      [
        "m",
        "on"
      ],
      [
        "w",
        "n"
      ],
      [
        "ce",
        "ive"
      ],
      [
        "ci",
        "us"
      ],
      [
        "KATH",
        "ARINA"
      ],
      [
        "S",
        "t"
      ],
      [
        "o",
        "ver"
      ],
      [
        "in",
        "to"
      ],
      [
        "vi",
        "ce"
      ],
      [
        "gentle",
        "man"
      ],
      [
        "Mar",
        "cius"
      ],
      [
        "c",
        "ousin"
      ],
      [
        "g",
        "ed"
      ],
      [
        "p",
        "et"
      ],
      [
        "st",
        "ri"
      ],
      [
        "as",
        "ure"
      ],
      [
        "bo",
        "dy"
      ],
      [
        "U",
        "p"
      ],
      [
        "t",
        "urn"
      ],
      [
        "or",
        "y"
      ],
      [
        "se",
        "d"
      ],
      [
        "re",
        "ady"
      ],
      [
        "for",
        "m"
      ],
      [
        "hat",
        "e"
      ],
      [
        "ma",
        "kes"
      ],
      [
        "ES",
        "CAL"
      ],
      [
        "sp",
        "ir"
      ],
      [
        "gri",
        "ef"
      ],
      [
        "ESCAL",
        "US"
      ],
      [
        "H",
        "er"
      ],
      [
        "P",
        "r"
      ],
      [
        "b",
        "t"
      ],
      [
        "e",
        "ld"
      ],
      [
        "u",
        "d"
      ],
      [
        "con",
        "tent"
      ],
      [
        "ang",
        "er"
      ],
      [
        "je",
        "ct"
      ],
      [
        "H",
        "ath"
      ],
      [
        "do",
        "st"
      ],
      [
        "bro",
        "ke"
      ],
      [
        "pro",
        "ve"
      ],
      [
        "fort",
        "une"
      ],
      [
        "A",
        "U"
      ],
      [
        "D",
        "UCH"
      ],
      [
        "D",
        "uke"
      ],
      [
        "c",
        "ra"
      ],
      [
        "d",
        "ow"
      ],
      [
        "s",
        "l"
      ],
      [
        "v",
        "ill"
      ],
      [
        "er",
        "y"
      ],
      [
        "ar",
        "y"
      ],
      [
        "wi",
        "lt"
      ],
      [
        "DUCH",
        "ESS"
      ],
      [
        "p",
        "her"
      ],
      [
        "r",
        "ant"
      ],
      [
        "it",
        "or"
      ],
      [
        "un",
        "t"
      ],
      [
        "po",
        "s"
      ],
      [
        "RO",
        "S"
      ],
      [
        "pl",
        "ay"
      ],
      [
        "An",
        "ge"
      ],
      [
        "sle",
        "ep"
      ],
      [
        "k",
        "ne"
      ],
      [
        "s",
        "ound"
      ],
      [
        "an",
        "ca"
      ],
      [
        "fa",
        "ul"
      ],
      [
        "than",
        "k"
      ],
      [
        "time",
        "s"
      ],
      [
        "swe",
        "ar"
      ],
      [
        "arm",
        "s"
      ],
      [
        "urder",
        "er"
      ],
      [
        "Ange",
        "lo"
      ],
      [
        "e",
        "ech"
      ],
      [
        "o",
        "st"
      ],
      [
        "w",
        "a"
      ],
      [
        "in",
        "deed"
      ],
      [
        "an",
        "other"
      ],
      [
        "is",
        "ed"
      ],
      [
        "gra",
        "ve"
      ],
      [
        "CA",
        "MIL"
      ],
      [
        "ac",
        "c"
      ],
      [
        "fal",
        "se"
      ],
      [
        "CAMIL",
        "LO"
      ],
      [
        "E",
        "ven"
      ],
      [
        "W",
        "ould"
      ],
      [
        "b",
        "al"
      ],
      [
        "e",
        "ven"
      ],
      [
        "m",
        "atter"
      ],
      [
        "ha",
        "s"
      ],
      [
        "com",
        "fort"
      ],
      [
        "tal",
        "k"
      ],
      [
        "Pro",
        "vost"
      ],
      [
        "happ",
        "y"
      ],
      [
        "pat",
        "i"
      ],
      [
        "T",
        "y"
      ],
      [
        "T",
        "EN"
      ],
      [
        "f",
        "ight"
      ],
      [
        "me",
        "d"
      ],
      [
        "re",
        "ason"
      ],
      [
        "ain",
        "t"
      ],
      [
        "su",
        "re"
      ],
      [
        "HOR",
        "TEN"
      ],
      [
        "vere",
        "ign"
      ],
      [
        "HORTEN",
        "S"
      ],
      [
        "F",
        "R"
      ],
      [
        "I",
        "AR"
      ],
      [
        "c",
        "or"
      ],
      [
        "v",
        "ent"
      ],
      [
        "ou",
        "ch"
      ],
      [
        "on",
        "ly"
      ],
      [
        "st",
        "ra"
      ],
      [
        "of",
        "fi"
      ],
      [
        "so",
        "vereign"
      ],
      [
        "coun",
        "try"
      ],
      [
        "ban",
        "ish"
      ],
      [
        "Up",
        "on"
      ],
      [
        "HORTENS",
        "IO"
      ],
      [
        "FR",
        "IAR"
      ],
      [
        ",",
        "'"
      ],
      [
        "A",
        "re"
      ],
      [
        "P",
        "TIS"
      ],
      [
        "T",
        "hi"
      ],
      [
        "c",
        "are"
      ],
      [
        "m",
        "in"
      ],
      [
        "s",
        "end"
      ],
      [
        "v",
        "a"
      ],
      [
        "w",
        "ish"
      ],
      [
        "y",
        "ears"
      ],
      [
        "ra",
        "ther"
      ],
      [
        "lie",
        "ve"
      ],
      [
        "BA",
        "PTIS"
      ],
      [
        "tru",
        "th"
      ],
      [
        "vir",
        "t"
      ],
      [
        "BAPTIS",
        "TA"
      ],
      [
        "A",
        "UT"
      ],
      [
        "C",
        "US"
      ],
      [
        "C",
        "OM"
      ],
      [
        "M",
        "ore"
      ],
      [
        "Y",
        "CUS"
      ],
      [
        "b",
        "it"
      ],
      [
        "i",
        "re"
      ],
      [
        "s",
        "la"
      ],
      [
        "re",
        "ven"
      ],
      [
        "one",
        "st"
      ],
      [
        "go",
        "t"
      ],
      [
        "OL",
        "YCUS"
      ],
      [
        "bus",
        "iness"
      ],
      [
        "AUT",
        "OLYCUS"
      ],
      [
        "COM",
        "INIUS"
      ],
      [
        ".",
        "'"
      ],
      [
        "A",
        "t"
      ],
      [
        "E",
        "Y"
      ],
      [
        "h",
        "ang"
      ],
      [
        "i",
        "ous"
      ],
      [
        "r",
        "d"
      ],
      [
        "s",
        "po"
      ],
      [
        "w",
        "om"
      ],
      [
        "w",
        "ant"
      ],
      [
        "en",
        "e"
      ],
      [
        "AR",
        "ENCE"
      ],
      [
        "sha",
        "lt"
      ],
      [
        "des",
        "er"
      ],
      [
        "CL",
        "ARENCE"
      ],
      [
        "Thi",
        "rd"
      ],
      [
        "w",
        "ind"
      ],
      [
        "y",
        "e"
      ],
      [
        "ar",
        "n"
      ],
      [
        "se",
        "a"
      ],
      [
        "ur",
        "y"
      ],
      [
        "bre",
        "ath"
      ],
      [
        "ie",
        "ld"
      ],
      [
        "comm",
        "and"
      ],
      [
        "dre",
        "am"
      ],
      [
        "pher",
        "d"
      ],
      [
        "B",
        "EN"
      ],
      [
        "G",
        "entle"
      ],
      [
        "N",
        "OR"
      ],
      [
        "S",
        "h"
      ],
      [
        "T",
        "ake"
      ],
      [
        "p",
        "rom"
      ],
      [
        "th",
        "ree"
      ],
      [
        "ho",
        "ly"
      ],
      [
        "fe",
        "ct"
      ],
      [
        "la",
        "u"
      ],
      [
        "comm",
        "on"
      ],
      [
        "Cl",
        "own"
      ],
      [
        "VOL",
        "IO"
      ],
      [
        "BEN",
        "VOLIO"
      ],
      [
        "M",
        "ER"
      ],
      [
        "P",
        "A"
      ],
      [
        "P",
        "ROS"
      ],
      [
        "T",
        "e"
      ],
      [
        "i",
        "gh"
      ],
      [
        "p",
        "ity"
      ],
      [
        "t",
        "w"
      ],
      [
        "en",
        "ough"
      ],
      [
        "so",
        "ld"
      ],
      [
        "UM",
        "IO"
      ],
      [
        "GR",
        "UMIO"
      ],
      [
        "PER",
        "O"
      ],
      [
        "wel",
        "come"
      ],
      [
        "hor",
        "se"
      ],
      [
        "dou",
        "bt"
      ],
      [
        "PROS",
        "PERO"
      ],
      [
        "K",
        "ate"
      ],
      [
        "M",
        "urderer"
      ],
      [
        "a",
        "ir"
      ],
      [
        "h",
        "um"
      ],
      [
        "at",
        "or"
      ],
      [
        "re",
        "ad"
      ],
      [
        "be",
        "a"
      ],
      [
        "li",
        "ves"
      ],
      [
        "pe",
        "ct"
      ],
      [
        "CU",
        "TIO"
      ],
      [
        "vill",
        "ain"
      ],
      [
        "MER",
        "CUTIO"
      ],
      [
        "J",
        "u"
      ],
      [
        "L",
        "i"
      ],
      [
        "W",
        "ere"
      ],
      [
        "b",
        "orn"
      ],
      [
        "f",
        "ree"
      ],
      [
        "k",
        "iss"
      ],
      [
        "l",
        "ate"
      ],
      [
        "an",
        "ta"
      ],
      [
        "as",
        "k"
      ],
      [
        "with",
        "in"
      ],
      [
        "go",
        "ds"
      ],
      [
        "wor",
        "n"
      ],
      [
        "LUC",
        "ENTIO"
      ],
      [
        "mad",
        "am"
      ],
      [
        "Ser",
        "vant"
      ],
      [
        "nat",
        "ure"
      ],
      [
        "A",
        "l"
      ],
      [
        "P",
        "OM"
      ],
      [
        "c",
        "re"
      ],
      [
        "c",
        "ity"
      ],
      [
        "s",
        "ister"
      ],
      [
        "for",
        "ce"
      ],
      [
        "our",
        "s"
      ],
      [
        "thing",
        "s"
      ],
      [
        "que",
        "st"
      ],
      [
        "mis",
        "tress"
      ],
      [
        "LAN",
        "D"
      ],
      [
        "POM",
        "P"
      ],
      [
        "G",
        "ive"
      ],
      [
        "R",
        "o"
      ],
      [
        "W",
        "as"
      ],
      [
        "f",
        "oul"
      ],
      [
        "o",
        "ath"
      ],
      [
        "w",
        "ound"
      ],
      [
        "y",
        "ield"
      ],
      [
        "me",
        "ans"
      ],
      [
        "ent",
        "s"
      ],
      [
        "ent",
        "er"
      ],
      [
        "pr",
        "oud"
      ],
      [
        "sa",
        "w"
      ],
      [
        "fi",
        "re"
      ],
      [
        "UL",
        "INA"
      ],
      [
        "sub",
        "ject"
      ],
      [
        "bes",
        "eech"
      ],
      [
        "PA",
        "ULINA"
      ],
      [
        "C",
        "on"
      ],
      [
        "S",
        "ay"
      ],
      [
        "m",
        "s"
      ],
      [
        "se",
        "en"
      ],
      [
        "re",
        "l"
      ],
      [
        "of",
        "t"
      ],
      [
        "de",
        "li"
      ],
      [
        "your",
        "s"
      ],
      [
        "fa",
        "ith"
      ],
      [
        "ge",
        "ther"
      ],
      [
        "ap",
        "pe"
      ],
      [
        "ond",
        "er"
      ],
      [
        "GRE",
        "MIO"
      ],
      [
        "gain",
        "st"
      ],
      [
        "POMP",
        "EY"
      ],
      [
        "I",
        "X"
      ],
      [
        "L",
        "ook"
      ],
      [
        "N",
        "IA"
      ],
      [
        "P",
        "OL"
      ],
      [
        "c",
        "la"
      ],
      [
        "g",
        "ro"
      ],
      [
        "h",
        "onest"
      ],
      [
        "i",
        "er"
      ],
      [
        "p",
        "ain"
      ],
      [
        "s",
        "m"
      ],
      [
        "w",
        "in"
      ],
      [
        "de",
        "m"
      ],
      [
        "your",
        "self"
      ],
      [
        "EN",
        "ES"
      ],
      [
        "ver",
        "s"
      ],
      [
        "AN",
        "T"
      ],
      [
        "tr",
        "ust"
      ],
      [
        "bl",
        "es"
      ],
      [
        "pl",
        "ain"
      ],
      [
        "blood",
        "y"
      ],
      [
        "look",
        "s"
      ],
      [
        "UM",
        "NIA"
      ],
      [
        "cour",
        "t"
      ],
      [
        "VOL",
        "UMNIA"
      ],
      [
        "gen",
        "er"
      ],
      [
        "Eng",
        "land"
      ],
      [
        "Ty",
        "bal"
      ],
      [
        "IX",
        "ENES"
      ],
      [
        "POL",
        "IXENES"
      ],
      [
        "B",
        "ER"
      ],
      [
        "G",
        "ON"
      ],
      [
        "S",
        "ome"
      ],
      [
        "i",
        "or"
      ],
      [
        "v",
        "is"
      ],
      [
        "be",
        "at"
      ],
      [
        "un",
        "cle"
      ],
      [
        "ING",
        "S"
      ],
      [
        "bre",
        "ak"
      ],
      [
        "ving",
        "man"
      ],
      [
        "hast",
        "e"
      ],
      [
        "HA",
        "ST"
      ],
      [
        "tra",
        "itor"
      ],
      [
        "eng",
        "er"
      ],
      [
        "Ser",
        "vingman"
      ],
      [
        "shi",
        "p"
      ],
      [
        "cent",
        "io"
      ],
      [
        "Tybal",
        "t"
      ],
      [
        "HAST",
        "INGS"
      ],
      [
        "C",
        "an"
      ],
      [
        "D",
        "id"
      ],
      [
        "H",
        "ast"
      ],
      [
        "M",
        "ay"
      ],
      [
        "R",
        "ENCE"
      ],
      [
        "b",
        "at"
      ],
      [
        "s",
        "in"
      ],
      [
        "s",
        "it"
      ],
      [
        "to",
        "gether"
      ],
      [
        "ha",
        "l"
      ],
      [
        "ch",
        "ange"
      ],
      [
        "un",
        "es"
      ],
      [
        "ma",
        "jest"
      ],
      [
        "po",
        "int"
      ],
      [
        "per",
        "son"
      ],
      [
        "day",
        "s"
      ],
      [
        "think",
        "s"
      ],
      [
        "child",
        "ren"
      ],
      [
        "tend",
        "er"
      ],
      [
        "LAU",
        "RENCE"
      ],
      [
        "A",
        "h"
      ],
      [
        "B",
        "Y"
      ],
      [
        "P",
        "et"
      ],
      [
        "d",
        "anger"
      ],
      [
        "g",
        "a"
      ],
      [
        "l",
        "am"
      ],
      [
        "s",
        "ight"
      ],
      [
        "s",
        "word"
      ],
      [
        "w",
        "is"
      ],
      [
        "w",
        "at"
      ],
      [
        "to",
        "ld"
      ],
      [
        "le",
        "ft"
      ],
      [
        "ow",
        "s"
      ],
      [
        "we",
        "ar"
      ],
      [
        "ad",
        "v"
      ],
      [
        "ck",
        "s"
      ],
      [
        "wo",
        "e"
      ],
      [
        "mer",
        "cy"
      ],
      [
        "war",
        "rant"
      ],
      [
        "There",
        "fore"
      ],
      [
        "foo",
        "t"
      ],
      [
        "Ju",
        "li"
      ],
      [
        "majest",
        "y"
      ],
      [
        "F",
        "F"
      ],
      [
        "I",
        "FF"
      ],
      [
        "f",
        "arewell"
      ],
      [
        "l",
        "ing"
      ],
      [
        "z",
        "e"
      ],
      [
        "on",
        "es"
      ],
      [
        "ut",
        "e"
      ],
      [
        "li",
        "f"
      ],
      [
        "de",
        "st"
      ],
      [
        "sa",
        "ve"
      ],
      [
        "UM",
        "BER"
      ],
      [
        "TH",
        "UMBER"
      ],
      [
        "CL",
        "IFF"
      ],
      [
        "rep",
        "ort"
      ],
      [
        "NOR",
        "THUMBER"
      ],
      [
        "NORTHUMBER",
        "LAND"
      ],
      [
        "I",
        "D"
      ],
      [
        "L",
        "u"
      ],
      [
        "M",
        "on"
      ],
      [
        "c",
        "old"
      ],
      [
        "r",
        "ance"
      ],
      [
        "s",
        "ing"
      ],
      [
        "s",
        "ad"
      ],
      [
        "us",
        "h"
      ],
      [
        "do",
        "es"
      ],
      [
        "go",
        "ld"
      ],
      [
        "wor",
        "thy"
      ],
      [
        "know",
        "n"
      ],
      [
        "mar",
        "ry"
      ],
      [
        "Thou",
        "gh"
      ],
      [
        "che",
        "s"
      ],
      [
        "ret",
        "urn"
      ],
      [
        "just",
        "ice"
      ],
      [
        "dra",
        "w"
      ],
      [
        "Te",
        "ll"
      ],
      [
        "hal",
        "f"
      ],
      [
        "C",
        "or"
      ],
      [
        "C",
        "om"
      ],
      [
        "g",
        "row"
      ],
      [
        "h",
        "ard"
      ],
      [
        "n",
        "er"
      ],
      [
        "n",
        "urse"
      ],
      [
        "r",
        "un"
      ],
      [
        "is",
        "t"
      ],
      [
        "be",
        "lieve"
      ],
      [
        "with",
        "out"
      ],
      [
        "so",
        "on"
      ],
      [
        "su",
        "e"
      ],
      [
        "ter",
        "s"
      ],
      [
        "AN",
        "NE"
      ],
      [
        "hea",
        "vy"
      ],
      [
        "pur",
        "pose"
      ],
      [
        "thr",
        "ough"
      ],
      [
        "C",
        "lif"
      ],
      [
        "H",
        "ad"
      ],
      [
        "L",
        "e"
      ],
      [
        "P",
        "R"
      ],
      [
        "S",
        "ign"
      ],
      [
        "W",
        "hi"
      ],
      [
        "a",
        "the"
      ],
      [
        "f",
        "ly"
      ],
      [
        "i",
        "ly"
      ],
      [
        "s",
        "il"
      ],
      [
        "he",
        "ir"
      ],
      [
        "lo",
        "st"
      ],
      [
        "pl",
        "uck"
      ],
      [
        "INC",
        "E"
      ],
      [
        "str",
        "ange"
      ],
      [
        "Juli",
        "et"
      ],
      [
        "PR",
        "INCE"
      ],
      [
        "B",
        "ol"
      ],
      [
        "G",
        "re"
      ],
      [
        "c",
        "ry"
      ],
      [
        "c",
        "urse"
      ],
      [
        "f",
        "it"
      ],
      [
        "f",
        "ound"
      ],
      [
        "o",
        "be"
      ],
      [
        "p",
        "en"
      ],
      [
        "p",
        "ast"
      ],
      [
        "ing",
        "broke"
      ],
      [
        "be",
        "l"
      ],
      [
        "ce",
        "ed"
      ],
      [
        "ent",
        "y"
      ],
      [
        "lo",
        "ss"
      ],
      [
        "thy",
        "self"
      ],
      [
        "ne",
        "ar"
      ],
      [
        "con",
        "s"
      ],
      [
        "say",
        "s"
      ],
      [
        "lie",
        "ge"
      ],
      [
        "char",
        "ge"
      ],
      [
        "spir",
        "it"
      ],
      [
        "Clif",
        "ford"
      ],
      [
        "Sign",
        "ior"
      ],
      [
        "Bol",
        "ingbroke"
      ],
      [
        "A",
        "way"
      ],
      [
        "C",
        "am"
      ],
      [
        "F",
        "arewell"
      ],
      [
        "M",
        "e"
      ],
      [
        "O",
        "ne"
      ],
      [
        "R",
        "e"
      ],
      [
        "f",
        "et"
      ],
      [
        "i",
        "de"
      ],
      [
        "s",
        "worn"
      ],
      [
        "t",
        "it"
      ],
      [
        "t",
        "ro"
      ],
      [
        "w",
        "all"
      ],
      [
        "ou",
        "th"
      ],
      [
        "he",
        "d"
      ],
      [
        "ha",
        "m"
      ],
      [
        "do",
        "m"
      ],
      [
        "str",
        "ong"
      ],
      [
        "Who",
        "se"
      ],
      [
        "pa",
        "ir"
      ],
      [
        "gr",
        "ound"
      ],
      [
        "Sh",
        "ould"
      ],
      [
        "A",
        "LO"
      ],
      [
        "C",
        "a"
      ],
      [
        "g",
        "s"
      ],
      [
        "i",
        "ces"
      ],
      [
        "w",
        "oo"
      ],
      [
        "w",
        "ise"
      ],
      [
        "in",
        "a"
      ],
      [
        "in",
        "str"
      ],
      [
        "de",
        "ep"
      ],
      [
        "de",
        "vil"
      ],
      [
        "ent",
        "reat"
      ],
      [
        "fa",
        "st"
      ],
      [
        "bo",
        "ld"
      ],
      [
        "ast",
        "er"
      ],
      [
        "use",
        "d"
      ],
      [
        "fri",
        "ar"
      ],
      [
        "mar",
        "ried"
      ],
      [
        "ser",
        "vice"
      ],
      [
        "eng",
        "th"
      ],
      [
        "Pr",
        "ay"
      ],
      [
        "cla",
        "im"
      ],
      [
        "Mon",
        "ta"
      ],
      [
        "F",
        "rance"
      ],
      [
        "G",
        "l"
      ],
      [
        "S",
        "en"
      ],
      [
        "a",
        "ther"
      ],
      [
        "d",
        "are"
      ],
      [
        "en",
        "ch"
      ],
      [
        "to",
        "ward"
      ],
      [
        "de",
        "f"
      ],
      [
        "id",
        "es"
      ],
      [
        "su",
        "p"
      ],
      [
        "qu",
        "ar"
      ],
      [
        "thought",
        "s"
      ],
      [
        "qui",
        "ck"
      ],
      [
        "reme",
        "mber"
      ],
      [
        "sl",
        "ain"
      ],
      [
        "faul",
        "t"
      ],
      [
        "stra",
        "ight"
      ],
      [
        "Li",
        "ke"
      ],
      [
        "F",
        "L"
      ],
      [
        "F",
        "ID"
      ],
      [
        "J",
        "o"
      ],
      [
        "M",
        "ess"
      ],
      [
        "c",
        "r"
      ],
      [
        "c",
        "al"
      ],
      [
        "e",
        "cut"
      ],
      [
        "f",
        "ol"
      ],
      [
        "o",
        "b"
      ],
      [
        "p",
        "h"
      ],
      [
        "t",
        "ouch"
      ],
      [
        "at",
        "s"
      ],
      [
        "le",
        "arn"
      ],
      [
        "ch",
        "oo"
      ],
      [
        "al",
        "one"
      ],
      [
        "lo",
        "se"
      ],
      [
        "The",
        "se"
      ],
      [
        "su",
        "it"
      ],
      [
        "pr",
        "ess"
      ],
      [
        "end",
        "s"
      ],
      [
        "OR",
        "IZ"
      ],
      [
        "sa",
        "me"
      ],
      [
        "wor",
        "th"
      ],
      [
        "love",
        "d"
      ],
      [
        "mar",
        "k"
      ],
      [
        "cour",
        "se"
      ],
      [
        "op",
        "en"
      ],
      [
        "AU",
        "FID"
      ],
      [
        "ene",
        "my"
      ],
      [
        "bea",
        "uty"
      ],
      [
        "gener",
        "al"
      ],
      [
        "FL",
        "ORIZ"
      ],
      [
        "Mess",
        "enger"
      ],
      [
        "AUFID",
        "IUS"
      ],
      [
        "FLORIZ",
        "EL"
      ],
      [
        "C",
        "lau"
      ],
      [
        "S",
        "E"
      ],
      [
        "a",
        "ct"
      ],
      [
        "b",
        "ir"
      ],
      [
        "b",
        "our"
      ],
      [
        "c",
        "ro"
      ],
      [
        "f",
        "ur"
      ],
      [
        "i",
        "ed"
      ],
      [
        "wi",
        "dow"
      ],
      [
        "IO",
        "N"
      ],
      [
        "pr",
        "of"
      ],
      [
        "di",
        "o"
      ],
      [
        "si",
        "de"
      ],
      [
        "ex",
        "ecut"
      ],
      [
        "br",
        "ought"
      ],
      [
        "Se",
        "e"
      ],
      [
        "gr",
        "ant"
      ],
      [
        "hour",
        "s"
      ],
      [
        "reven",
        "ge"
      ],
      [
        "tw",
        "enty"
      ],
      [
        "Clau",
        "dio"
      ],
      [
        "!",
        "'"
      ],
      [
        "H",
        "a"
      ],
      [
        "M",
        "ad"
      ],
      [
        "b",
        "ow"
      ],
      [
        "d",
        "uty"
      ],
      [
        "j",
        "ud"
      ],
      [
        "s",
        "es"
      ],
      [
        "you",
        "th"
      ],
      [
        "re",
        "w"
      ],
      [
        "it",
        "self"
      ],
      [
        "ri",
        "ch"
      ],
      [
        "so",
        "m"
      ],
      [
        "fe",
        "el"
      ],
      [
        "con",
        "su"
      ],
      [
        "ER",
        "S"
      ],
      [
        "mo",
        "ve"
      ],
      [
        "mo",
        "ck"
      ],
      [
        "wor",
        "k"
      ],
      [
        "can",
        "st"
      ],
      [
        "know",
        "s"
      ],
      [
        "spe",
        "ed"
      ],
      [
        "um",
        "ber"
      ],
      [
        "conf",
        "ess"
      ],
      [
        "Gentle",
        "man"
      ],
      [
        "Sen",
        "ator"
      ],
      [
        "Mad",
        "am"
      ],
      [
        "A",
        "gainst"
      ],
      [
        "C",
        "IUS"
      ],
      [
        "C",
        "ap"
      ],
      [
        "D",
        "e"
      ],
      [
        "M",
        "aster"
      ],
      [
        "b",
        "s"
      ],
      [
        "b",
        "ound"
      ],
      [
        "d",
        "am"
      ],
      [
        "p",
        "ed"
      ],
      [
        "u",
        "a"
      ],
      [
        "v",
        "al"
      ],
      [
        "ou",
        "ce"
      ],
      [
        "le",
        "ad"
      ],
      [
        "ch",
        "o"
      ],
      [
        "ri",
        "age"
      ],
      [
        "ord",
        "er"
      ],
      [
        "ill",
        "o"
      ],
      [
        "il",
        "s"
      ],
      [
        "sa",
        "ke"
      ],
      [
        "ple",
        "asure"
      ],
      [
        "fi",
        "eld"
      ],
      [
        "des",
        "ire"
      ],
      [
        "coun",
        "ter"
      ],
      [
        "stand",
        "s"
      ],
      [
        "che",
        "d"
      ],
      [
        "ser",
        "ve"
      ],
      [
        "res",
        "ol"
      ],
      [
        "MAR",
        "CIUS"
      ],
      [
        "BA",
        "ST"
      ],
      [
        "She",
        "pherd"
      ],
      [
        "comp",
        "any"
      ],
      [
        "wom",
        "en"
      ],
      [
        "Monta",
        "gue"
      ],
      [
        "Gl",
        "ouce"
      ],
      [
        "SE",
        "BAST"
      ],
      [
        "SEBAST",
        "IAN"
      ],
      [
        "M",
        "ON"
      ],
      [
        "O",
        "W"
      ],
      [
        "b",
        "urn"
      ],
      [
        "d",
        "ish"
      ],
      [
        "e",
        "ither"
      ],
      [
        "g",
        "es"
      ],
      [
        "h",
        "arm"
      ],
      [
        "m",
        "us"
      ],
      [
        "m",
        "urder"
      ],
      [
        "me",
        "t"
      ],
      [
        "he",
        "s"
      ],
      [
        "he",
        "ll"
      ],
      [
        "ing",
        "ham"
      ],
      [
        "be",
        "hold"
      ],
      [
        "ch",
        "ance"
      ],
      [
        "fe",
        "ction"
      ],
      [
        "Th",
        "us"
      ],
      [
        "heart",
        "s"
      ],
      [
        "coun",
        "sel"
      ],
      [
        "fear",
        "ful"
      ],
      [
        "Cam",
        "illo"
      ],
      [
        "B",
        "uck"
      ],
      [
        "B",
        "ION"
      ],
      [
        "D",
        "EL"
      ],
      [
        "T",
        "ill"
      ],
      [
        "V",
        "ol"
      ],
      [
        "a",
        "u"
      ],
      [
        "d",
        "ro"
      ],
      [
        "e",
        "ach"
      ],
      [
        "f",
        "er"
      ],
      [
        "i",
        "ci"
      ],
      [
        "s",
        "at"
      ],
      [
        "s",
        "ur"
      ],
      [
        "v",
        "our"
      ],
      [
        "w",
        "ret"
      ],
      [
        "be",
        "ll"
      ],
      [
        "ho",
        "t"
      ],
      [
        "lo",
        "ving"
      ],
      [
        "su",
        "c"
      ],
      [
        "sh",
        "ort"
      ],
      [
        "ta",
        "le"
      ],
      [
        "te",
        "st"
      ],
      [
        "mar",
        "riage"
      ],
      [
        "stri",
        "ke"
      ],
      [
        "Hast",
        "ings"
      ],
      [
        "Glouce",
        "ster"
      ],
      [
        "Buck",
        "ingham"
      ],
      [
        "BION",
        "DEL"
      ],
      [
        "BIONDEL",
        "LO"
      ],
      [
        "A",
        "u"
      ],
      [
        "C",
        "h"
      ],
      [
        "c",
        "ri"
      ],
      [
        "d",
        "u"
      ],
      [
        "f",
        "id"
      ],
      [
        "m",
        "it"
      ],
      [
        "p",
        "ie"
      ],
      [
        "s",
        "ign"
      ],
      [
        "w",
        "on"
      ],
      [
        "w",
        "onder"
      ],
      [
        "at",
        "tend"
      ],
      [
        "st",
        "o"
      ],
      [
        "st",
        "u"
      ],
      [
        "as",
        "h"
      ],
      [
        "we",
        "en"
      ],
      [
        "with",
        "al"
      ],
      [
        "ra",
        "h"
      ],
      [
        "ca",
        "st"
      ],
      [
        "sa",
        "fe"
      ],
      [
        "some",
        "thing"
      ],
      [
        "si",
        "ck"
      ],
      [
        "vo",
        "ices"
      ],
      [
        "mis",
        "s"
      ],
      [
        "pre",
        "t"
      ],
      [
        "Nor",
        "fol"
      ],
      [
        "gu",
        "il"
      ],
      [
        "high",
        "ness"
      ],
      [
        "gi",
        "ven"
      ],
      [
        "pati",
        "ence"
      ],
      [
        "deli",
        "ver"
      ],
      [
        "Vol",
        "s"
      ],
      [
        "Norfol",
        "k"
      ],
      [
        "A",
        "UM"
      ],
      [
        "H",
        "ER"
      ],
      [
        "O",
        "P"
      ],
      [
        "c",
        "red"
      ],
      [
        "k",
        "n"
      ],
      [
        "k",
        "new"
      ],
      [
        "l",
        "s"
      ],
      [
        "p",
        "it"
      ],
      [
        "p",
        "ra"
      ],
      [
        "r",
        "ing"
      ],
      [
        "w",
        "ast"
      ],
      [
        "w",
        "atch"
      ],
      [
        "in",
        "ed"
      ],
      [
        "wi",
        "xt"
      ],
      [
        "al",
        "th"
      ],
      [
        "all",
        "y"
      ],
      [
        "lo",
        "ves"
      ],
      [
        "su",
        "ff"
      ],
      [
        "ER",
        "LE"
      ],
      [
        "com",
        "ing"
      ],
      [
        "We",
        "l"
      ],
      [
        "too",
        "k"
      ],
      [
        "did",
        "st"
      ],
      [
        "ON",
        "IO"
      ],
      [
        "str",
        "ength"
      ],
      [
        "gentle",
        "men"
      ],
      [
        "heaven",
        "s"
      ],
      [
        "fl",
        "atter"
      ],
      [
        "pa",
        "le"
      ],
      [
        "pose",
        "d"
      ],
      [
        "Ro",
        "man"
      ],
      [
        "ANT",
        "ONIO"
      ],
      [
        "Lu",
        "centio"
      ],
      [
        "AUM",
        "ERLE"
      ],
      [
        "B",
        "i"
      ],
      [
        "L",
        "anca"
      ],
      [
        "P",
        "o"
      ],
      [
        "Z",
        "ALO"
      ],
      [
        "a",
        "w"
      ],
      [
        "b",
        "ar"
      ],
      [
        "g",
        "er"
      ],
      [
        "h",
        "ood"
      ],
      [
        "l",
        "ad"
      ],
      [
        "r",
        "is"
      ],
      [
        "th",
        "ri"
      ],
      [
        "en",
        "em"
      ],
      [
        "st",
        "ir"
      ],
      [
        "be",
        "come"
      ],
      [
        "ce",
        "pt"
      ],
      [
        "li",
        "ps"
      ],
      [
        "mor",
        "tal"
      ],
      [
        "po",
        "st"
      ],
      [
        "Mar",
        "ry"
      ],
      [
        "bra",
        "ve"
      ],
      [
        "tem",
        "pt"
      ],
      [
        "GON",
        "ZALO"
      ],
      [
        "Lanca",
        "ster"
      ],
      [
        "enem",
        "ies"
      ],
      [
        "L",
        "o"
      ],
      [
        "L",
        "ady"
      ],
      [
        "M",
        "ost"
      ],
      [
        "P",
        "om"
      ],
      [
        "S",
        "A"
      ],
      [
        "Y",
        "e"
      ],
      [
        "a",
        "bo"
      ],
      [
        "b",
        "ly"
      ],
      [
        "b",
        "ook"
      ],
      [
        "e",
        "per"
      ],
      [
        "g",
        "ates"
      ],
      [
        "w",
        "ed"
      ],
      [
        "is",
        "hed"
      ],
      [
        "on",
        "s"
      ],
      [
        "he",
        "ld"
      ],
      [
        "ce",
        "d"
      ],
      [
        "ho",
        "p"
      ],
      [
        "ne",
        "xt"
      ],
      [
        "po",
        "ss"
      ],
      [
        "see",
        "k"
      ],
      [
        "than",
        "ks"
      ],
      [
        "ci",
        "ent"
      ],
      [
        "pro",
        "p"
      ],
      [
        "bre",
        "athe"
      ],
      [
        "co",
        "ver"
      ],
      [
        "soul",
        "s"
      ],
      [
        "cer",
        "tain"
      ],
      [
        "ceive",
        "d"
      ],
      [
        "wat",
        "er"
      ],
      [
        "tit",
        "le"
      ],
      [
        "suff",
        "er"
      ],
      [
        "Bi",
        "anca"
      ],
      [
        "B",
        "es"
      ],
      [
        "C",
        "LAU"
      ],
      [
        "D",
        "IO"
      ],
      [
        "P",
        "l"
      ],
      [
        "T",
        "ran"
      ],
      [
        "b",
        "row"
      ],
      [
        "c",
        "ure"
      ],
      [
        "f",
        "our"
      ],
      [
        "g",
        "ave"
      ],
      [
        "m",
        "outh"
      ],
      [
        "w",
        "h"
      ],
      [
        "of",
        "ten"
      ],
      [
        "ra",
        "ge"
      ],
      [
        "ma",
        "in"
      ],
      [
        "con",
        "sent"
      ],
      [
        "po",
        "ison"
      ],
      [
        "bo",
        "som"
      ],
      [
        "them",
        "selves"
      ],
      [
        "bre",
        "ast"
      ],
      [
        "che",
        "e"
      ],
      [
        "che",
        "er"
      ],
      [
        "jo",
        "in"
      ],
      [
        "mer",
        "ry"
      ],
      [
        "gri",
        "e"
      ],
      [
        "MIO",
        "NE"
      ],
      [
        "Al",
        "as"
      ],
      [
        "Pet",
        "ru"
      ],
      [
        "CLIFF",
        "ORD"
      ],
      [
        "HER",
        "MIONE"
      ],
      [
        "CLAU",
        "DIO"
      ],
      [
        "C",
        "all"
      ],
      [
        "D",
        "A"
      ],
      [
        "I",
        "RAN"
      ],
      [
        "J",
        "O"
      ],
      [
        "L",
        "ORD"
      ],
      [
        "M",
        "ake"
      ],
      [
        "M",
        "IRAN"
      ],
      [
        "P",
        "er"
      ],
      [
        "S",
        "ince"
      ],
      [
        "b",
        "lack"
      ],
      [
        "b",
        "unes"
      ],
      [
        "d",
        "ing"
      ],
      [
        "d",
        "den"
      ],
      [
        "i",
        "ers"
      ],
      [
        "k",
        "no"
      ],
      [
        "t",
        "in"
      ],
      [
        "t",
        "or"
      ],
      [
        "t",
        "was"
      ],
      [
        "t",
        "were"
      ],
      [
        "w",
        "d"
      ],
      [
        "th",
        "row"
      ],
      [
        "ve",
        "l"
      ],
      [
        "ow",
        "ard"
      ],
      [
        "for",
        "get"
      ],
      [
        "ere",
        "d"
      ],
      [
        "ed",
        "s"
      ],
      [
        "we",
        "ak"
      ],
      [
        "al",
        "ong"
      ],
      [
        "end",
        "ed"
      ],
      [
        "wor",
        "se"
      ],
      [
        "di",
        "v"
      ],
      [
        "Be",
        "ing"
      ],
      [
        "chi",
        "o"
      ],
      [
        "fo",
        "e"
      ],
      [
        "virt",
        "u"
      ],
      [
        "virt",
        "ue"
      ],
      [
        "appe",
        "ar"
      ],
      [
        "fur",
        "ther"
      ],
      [
        "Au",
        "fid"
      ],
      [
        "Tran",
        "io"
      ],
      [
        "Petru",
        "chio"
      ],
      [
        "MIRAN",
        "DA"
      ],
      [
        "Aufid",
        "ius"
      ],
      [
        "H",
        "N"
      ],
      [
        "S",
        "pe"
      ],
      [
        "S",
        "ON"
      ],
      [
        "a",
        "de"
      ],
      [
        "b",
        "ad"
      ],
      [
        "b",
        "ur"
      ],
      [
        "f",
        "ir"
      ],
      [
        "l",
        "st"
      ],
      [
        "p",
        "are"
      ],
      [
        "s",
        "k"
      ],
      [
        "s",
        "pr"
      ],
      [
        "is",
        "sue"
      ],
      [
        "re",
        "quest"
      ],
      [
        "li",
        "ant"
      ],
      [
        "li",
        "ber"
      ],
      [
        "al",
        "ready"
      ],
      [
        "us",
        "ur"
      ],
      [
        "mor",
        "ning"
      ],
      [
        "king",
        "s"
      ],
      [
        "fl",
        "es"
      ],
      [
        "wr",
        "it"
      ],
      [
        "Here",
        "ford"
      ],
      [
        "beg",
        "in"
      ],
      [
        "offi",
        "ce"
      ],
      [
        "bat",
        "tle"
      ],
      [
        "danger",
        "ous"
      ],
      [
        "sat",
        "is"
      ],
      [
        "JO",
        "HN"
      ],
      [
        "T",
        "ower"
      ],
      [
        "Y",
        "es"
      ],
      [
        "a",
        "unt"
      ],
      [
        "c",
        "reat"
      ],
      [
        "f",
        "rown"
      ],
      [
        "h",
        "ind"
      ],
      [
        "i",
        "ol"
      ],
      [
        "m",
        "ond"
      ],
      [
        "p",
        "ay"
      ],
      [
        "p",
        "al"
      ],
      [
        "p",
        "lo"
      ],
      [
        "in",
        "ter"
      ],
      [
        "an",
        "us"
      ],
      [
        "or",
        "ge"
      ],
      [
        "ar",
        "ry"
      ],
      [
        "hi",
        "p"
      ],
      [
        "fe",
        "ast"
      ],
      [
        "ne",
        "ither"
      ],
      [
        "tr",
        "ou"
      ],
      [
        "go",
        "es"
      ],
      [
        "ca",
        "se"
      ],
      [
        "bl",
        "ess"
      ],
      [
        "then",
        "ce"
      ],
      [
        "di",
        "re"
      ],
      [
        "way",
        "s"
      ],
      [
        "son",
        "s"
      ],
      [
        "Be",
        "fore"
      ],
      [
        "ser",
        "vant"
      ],
      [
        "bet",
        "ween"
      ],
      [
        "Rich",
        "mond"
      ],
      [
        "mi",
        "le"
      ],
      [
        "pati",
        "ent"
      ],
      [
        "sold",
        "iers"
      ],
      [
        "wound",
        "s"
      ],
      [
        "Cor",
        "iol"
      ],
      [
        "quar",
        "rel"
      ],
      [
        "Wel",
        "come"
      ],
      [
        "poss",
        "ess"
      ],
      [
        "Coriol",
        "anus"
      ],
      [
        "A",
        "S"
      ],
      [
        "A",
        "r"
      ],
      [
        "M",
        "ust"
      ],
      [
        "N",
        "T"
      ],
      [
        "P",
        "e"
      ],
      [
        "S",
        "uch"
      ],
      [
        "b",
        "la"
      ],
      [
        "c",
        "c"
      ],
      [
        "f",
        "ra"
      ],
      [
        "f",
        "res"
      ],
      [
        "m",
        "as"
      ],
      [
        "o",
        "d"
      ],
      [
        "p",
        "ite"
      ],
      [
        "r",
        "up"
      ],
      [
        "r",
        "ough"
      ],
      [
        "w",
        "he"
      ],
      [
        "me",
        "s"
      ],
      [
        "to",
        "wn"
      ],
      [
        "ha",
        "ving"
      ],
      [
        "ow",
        "ers"
      ],
      [
        "ce",
        "ll"
      ],
      [
        "al",
        "k"
      ],
      [
        "un",
        "k"
      ],
      [
        "su",
        "m"
      ],
      [
        "di",
        "es"
      ],
      [
        "spe",
        "ech"
      ],
      [
        "CA",
        "TES"
      ],
      [
        "vi",
        "ct"
      ],
      [
        "si",
        "gh"
      ],
      [
        "si",
        "ble"
      ],
      [
        "Be",
        "cause"
      ],
      [
        "ba",
        "se"
      ],
      [
        "vo",
        "ice"
      ],
      [
        "off",
        "er"
      ],
      [
        "Mar",
        "gar"
      ],
      [
        "pres",
        "ence"
      ],
      [
        "Un",
        "less"
      ],
      [
        "dre",
        "ad"
      ],
      [
        "bri",
        "de"
      ],
      [
        "bri",
        "ef"
      ],
      [
        "spo",
        "ke"
      ],
      [
        "consu",
        "l"
      ],
      [
        "Spe",
        "ak"
      ],
      [
        "CATES",
        "BY"
      ],
      [
        "Margar",
        "et"
      ],
      [
        "B",
        "ap"
      ],
      [
        "K",
        "e"
      ],
      [
        "L",
        "ond"
      ],
      [
        "S",
        "aint"
      ],
      [
        "c",
        "ol"
      ],
      [
        "d",
        "ark"
      ],
      [
        "f",
        "ill"
      ],
      [
        "h",
        "ur"
      ],
      [
        "r",
        "um"
      ],
      [
        "u",
        "b"
      ],
      [
        "v",
        "ow"
      ],
      [
        "w",
        "ars"
      ],
      [
        "ar",
        "l"
      ],
      [
        "ar",
        "is"
      ],
      [
        "on",
        "a"
      ],
      [
        "ll",
        "o"
      ],
      [
        "for",
        "ward"
      ],
      [
        "li",
        "p"
      ],
      [
        "The",
        "ir"
      ],
      [
        "vi",
        "le"
      ],
      [
        "ac",
        "tion"
      ],
      [
        "Who",
        "m"
      ],
      [
        "head",
        "s"
      ],
      [
        "sc",
        "ar"
      ],
      [
        "deed",
        "s"
      ],
      [
        "might",
        "y"
      ],
      [
        "GRE",
        "Y"
      ],
      [
        "den",
        "y"
      ],
      [
        "nat",
        "ur"
      ],
      [
        "cha",
        "mber"
      ],
      [
        "thr",
        "one"
      ],
      [
        "seem",
        "s"
      ],
      [
        "clo",
        "se"
      ],
      [
        "Bo",
        "th"
      ],
      [
        "prom",
        "ise"
      ],
      [
        "vis",
        "it"
      ],
      [
        "Bap",
        "tis"
      ],
      [
        "Lond",
        "on"
      ],
      [
        "B",
        "IAN"
      ],
      [
        "E",
        "re"
      ],
      [
        "G",
        "e"
      ],
      [
        "I",
        "sa"
      ],
      [
        "L",
        "est"
      ],
      [
        "M",
        "er"
      ],
      [
        "M",
        "is"
      ],
      [
        "P",
        "aris"
      ],
      [
        "R",
        "IV"
      ],
      [
        "T",
        "r"
      ],
      [
        "b",
        "ury"
      ],
      [
        "e",
        "th"
      ],
      [
        "g",
        "ing"
      ],
      [
        "h",
        "ar"
      ],
      [
        "i",
        "ma"
      ],
      [
        "m",
        "b"
      ],
      [
        "s",
        "wi"
      ],
      [
        "s",
        "al"
      ],
      [
        "s",
        "oft"
      ],
      [
        "an",
        "cient"
      ],
      [
        "st",
        "ain"
      ],
      [
        "re",
        "g"
      ],
      [
        "ch",
        "ang"
      ],
      [
        "ur",
        "ch"
      ],
      [
        "so",
        "l"
      ],
      [
        "ma",
        "st"
      ],
      [
        "id",
        "ed"
      ],
      [
        "ver",
        "n"
      ],
      [
        "su",
        "dden"
      ],
      [
        "mo",
        "on"
      ],
      [
        "ion",
        "s"
      ],
      [
        "was",
        "h"
      ],
      [
        "wor",
        "ship"
      ],
      [
        "um",
        "pet"
      ],
      [
        "um",
        "ph"
      ],
      [
        "vi",
        "ol"
      ],
      [
        "ment",
        "s"
      ],
      [
        "pray",
        "ers"
      ],
      [
        "res",
        "pect"
      ],
      [
        "BA",
        "L"
      ],
      [
        "cl",
        "ou"
      ],
      [
        "tre",
        "m"
      ],
      [
        "prince",
        "ly"
      ],
      [
        "BR",
        "A"
      ],
      [
        "full",
        "y"
      ],
      [
        "bu",
        "y"
      ],
      [
        "bit",
        "ter"
      ],
      [
        "Baptis",
        "ta"
      ],
      [
        "BIAN",
        "CA"
      ],
      [
        "Ge",
        "orge"
      ],
      [
        "RIV",
        "ERS"
      ],
      [
        "B",
        "OW"
      ],
      [
        "G",
        "AU"
      ],
      [
        "P",
        "a"
      ],
      [
        "T",
        "ho"
      ],
      [
        "a",
        "ck"
      ],
      [
        "c",
        "oward"
      ],
      [
        "e",
        "w"
      ],
      [
        "e",
        "at"
      ],
      [
        "e",
        "as"
      ],
      [
        "g",
        "all"
      ],
      [
        "i",
        "an"
      ],
      [
        "u",
        "ct"
      ],
      [
        "se",
        "at"
      ],
      [
        "re",
        "ver"
      ],
      [
        "hi",
        "de"
      ],
      [
        "fa",
        "vour"
      ],
      [
        "one",
        "y"
      ],
      [
        "ti",
        "l"
      ],
      [
        "pr",
        "in"
      ],
      [
        "EL",
        "BOW"
      ],
      [
        "ure",
        "d"
      ],
      [
        "ple",
        "as"
      ],
      [
        "coun",
        "t"
      ],
      [
        "ort",
        "en"
      ],
      [
        "sc",
        "orn"
      ],
      [
        "Nor",
        "th"
      ],
      [
        "tri",
        "umph"
      ],
      [
        "law",
        "ful"
      ],
      [
        "present",
        "ly"
      ],
      [
        "wit",
        "ness"
      ],
      [
        "St",
        "and"
      ],
      [
        "va",
        "liant"
      ],
      [
        "sla",
        "ve"
      ],
      [
        "anta",
        "ge"
      ],
      [
        "lam",
        "ent"
      ],
      [
        "fet",
        "ch"
      ],
      [
        "cro",
        "ss"
      ],
      [
        "mus",
        "ic"
      ],
      [
        "suc",
        "cess"
      ],
      [
        "fles",
        "h"
      ],
      [
        "GAU",
        "NT"
      ],
      [
        "G",
        "UE"
      ],
      [
        "H",
        "old"
      ],
      [
        "H",
        "ark"
      ],
      [
        "H",
        "orten"
      ],
      [
        "O",
        "x"
      ],
      [
        "T",
        "Y"
      ],
      [
        "a",
        "ven"
      ],
      [
        "b",
        "oo"
      ],
      [
        "e",
        "ase"
      ],
      [
        "f",
        "ond"
      ],
      [
        "i",
        "le"
      ],
      [
        "i",
        "fe"
      ],
      [
        "i",
        "ck"
      ],
      [
        "k",
        "ins"
      ],
      [
        "n",
        "ay"
      ],
      [
        "o",
        "cc"
      ],
      [
        "p",
        "ort"
      ],
      [
        "p",
        "atch"
      ],
      [
        "s",
        "per"
      ],
      [
        "st",
        "ant"
      ],
      [
        "le",
        "ast"
      ],
      [
        "al",
        "most"
      ],
      [
        "will",
        "ing"
      ],
      [
        "ge",
        "st"
      ],
      [
        "mo",
        "ved"
      ],
      [
        "ap",
        "pro"
      ],
      [
        "si",
        "o"
      ],
      [
        "pri",
        "thee"
      ],
      [
        "tri",
        "bunes"
      ],
      [
        "TA",
        "GUE"
      ],
      [
        "qui",
        "et"
      ],
      [
        "faul",
        "ts"
      ],
      [
        "dem",
        "n"
      ],
      [
        "MON",
        "TAGUE"
      ],
      [
        "Horten",
        "sio"
      ],
      [
        "K",
        "ath"
      ],
      [
        "a",
        "id"
      ],
      [
        "b",
        "or"
      ],
      [
        "c",
        "en"
      ],
      [
        "d",
        "le"
      ],
      [
        "g",
        "ent"
      ],
      [
        "k",
        "ed"
      ],
      [
        "l",
        "ar"
      ],
      [
        "l",
        "ow"
      ],
      [
        "m",
        "id"
      ],
      [
        "m",
        "atch"
      ],
      [
        "t",
        "une"
      ],
      [
        "w",
        "arm"
      ],
      [
        "th",
        "ither"
      ],
      [
        "ar",
        "ina"
      ],
      [
        "st",
        "or"
      ],
      [
        "he",
        "mi"
      ],
      [
        "be",
        "ast"
      ],
      [
        "le",
        "y"
      ],
      [
        "ch",
        "er"
      ],
      [
        "de",
        "part"
      ],
      [
        "oo",
        "th"
      ],
      [
        "ma",
        "li"
      ],
      [
        "pe",
        "y"
      ],
      [
        "fe",
        "it"
      ],
      [
        "ti",
        "c"
      ],
      [
        "go",
        "d"
      ],
      [
        "king",
        "dom"
      ],
      [
        "ak",
        "ed"
      ],
      [
        "di",
        "ed"
      ],
      [
        "ci",
        "ence"
      ],
      [
        "fi",
        "e"
      ],
      [
        "fi",
        "ed"
      ],
      [
        "ba",
        "wd"
      ],
      [
        "Do",
        "th"
      ],
      [
        "bra",
        "ce"
      ],
      [
        "Bo",
        "hemi"
      ],
      [
        "St",
        "ay"
      ],
      [
        "sla",
        "ughter"
      ],
      [
        "subject",
        "s"
      ],
      [
        "sm",
        "all"
      ],
      [
        "def",
        "end"
      ],
      [
        "execut",
        "ion"
      ],
      [
        "umber",
        "land"
      ],
      [
        "pret",
        "ty"
      ],
      [
        "Pom",
        "pey"
      ],
      [
        "Ye",
        "a"
      ],
      [
        "Pe",
        "ace"
      ],
      [
        "North",
        "umberland"
      ],
      [
        "Ox",
        "ford"
      ],
      [
        "Kath",
        "arina"
      ],
      [
        "D",
        "I"
      ],
      [
        "E",
        "x"
      ],
      [
        "G",
        "IL"
      ],
      [
        "I",
        "EL"
      ],
      [
        "R",
        "GIL"
      ],
      [
        "S",
        "we"
      ],
      [
        "a",
        "while"
      ],
      [
        "s",
        "land"
      ],
      [
        "v",
        "ol"
      ],
      [
        "y",
        "ear"
      ],
      [
        "in",
        "es"
      ],
      [
        "in",
        "no"
      ],
      [
        "le",
        "ct"
      ],
      [
        "wi",
        "ld"
      ],
      [
        "li",
        "ving"
      ],
      [
        "ri",
        "d"
      ],
      [
        "tr",
        "umpet"
      ],
      [
        "ER",
        "D"
      ],
      [
        "te",
        "ar"
      ],
      [
        "go",
        "vern"
      ],
      [
        "good",
        "ly"
      ],
      [
        "per",
        "ate"
      ],
      [
        "pro",
        "ceed"
      ],
      [
        "had",
        "st"
      ],
      [
        "when",
        "ce"
      ],
      [
        "hear",
        "ing"
      ],
      [
        "off",
        "ence"
      ],
      [
        "led",
        "ge"
      ],
      [
        "mi",
        "ld"
      ],
      [
        "VI",
        "RGIL"
      ],
      [
        "gu",
        "ard"
      ],
      [
        "wer",
        "t"
      ],
      [
        "PER",
        "DI"
      ],
      [
        "dr",
        "ink"
      ],
      [
        "gl",
        "ad"
      ],
      [
        "gre",
        "et"
      ],
      [
        "sold",
        "ier"
      ],
      [
        "obe",
        "di"
      ],
      [
        "quick",
        "ly"
      ],
      [
        "bir",
        "th"
      ],
      [
        "dish",
        "onour"
      ],
      [
        "pie",
        "ce"
      ],
      [
        "kno",
        "ck"
      ],
      [
        "virtu",
        "ous"
      ],
      [
        "fres",
        "h"
      ],
      [
        "Pa",
        "ul"
      ],
      [
        "Bohemi",
        "a"
      ],
      [
        "Swe",
        "et"
      ],
      [
        "VIRGIL",
        "IA"
      ],
      [
        "PERDI",
        "TA"
      ],
      [
        "L",
        "Y"
      ],
      [
        "S",
        "LY"
      ],
      [
        "c",
        "li"
      ],
      [
        "c",
        "ord"
      ],
      [
        "c",
        "orn"
      ],
      [
        "f",
        "led"
      ],
      [
        "g",
        "n"
      ],
      [
        "g",
        "ir"
      ],
      [
        "h",
        "un"
      ],
      [
        "l",
        "ish"
      ],
      [
        "m",
        "ir"
      ],
      [
        "m",
        "io"
      ],
      [
        "n",
        "y"
      ],
      [
        "r",
        "or"
      ],
      [
        "s",
        "ort"
      ],
      [
        "u",
        "es"
      ],
      [
        "z",
        "ed"
      ],
      [
        "th",
        "or"
      ],
      [
        "is",
        "ure"
      ],
      [
        "st",
        "ood"
      ],
      [
        "me",
        "asure"
      ],
      [
        "re",
        "ck"
      ],
      [
        "le",
        "isure"
      ],
      [
        "ch",
        "urch"
      ],
      [
        "li",
        "c"
      ],
      [
        "ke",
        "t"
      ],
      [
        "oo",
        "p"
      ],
      [
        "do",
        "ing"
      ],
      [
        "ti",
        "es"
      ],
      [
        "ne",
        "ck"
      ],
      [
        "con",
        "tin"
      ],
      [
        "ust",
        "om"
      ],
      [
        "bl",
        "ing"
      ],
      [
        "bl",
        "ows"
      ],
      [
        "ak",
        "es"
      ],
      [
        "wor",
        "st"
      ],
      [
        "per",
        "form"
      ],
      [
        "ast",
        "ard"
      ],
      [
        "land",
        "s"
      ],
      [
        "ang",
        "ry"
      ],
      [
        "af",
        "fection"
      ],
      [
        "great",
        "er"
      ],
      [
        "MAR",
        "IAN"
      ],
      [
        "tre",
        "ason"
      ],
      [
        "kind",
        "ness"
      ],
      [
        "dr",
        "um"
      ],
      [
        "pi",
        "er"
      ],
      [
        "weep",
        "ing"
      ],
      [
        "pos",
        "sible"
      ],
      [
        "kne",
        "e"
      ],
      [
        "kne",
        "el"
      ],
      [
        "banish",
        "ment"
      ],
      [
        "deser",
        "ved"
      ],
      [
        "guil",
        "ty"
      ],
      [
        "trou",
        "ble"
      ],
      [
        "natur",
        "al"
      ],
      [
        "Isa",
        "bel"
      ],
      [
        "MARIAN",
        "A"
      ],
      [
        "A",
        "f"
      ],
      [
        "A",
        "m"
      ],
      [
        "B",
        "l"
      ],
      [
        "F",
        "a"
      ],
      [
        "G",
        "rum"
      ],
      [
        "O",
        "ut"
      ],
      [
        "P",
        "ri"
      ],
      [
        "P",
        "ad"
      ],
      [
        "P",
        "AR"
      ],
      [
        "R",
        "A"
      ],
      [
        "W",
        "atch"
      ],
      [
        "b",
        "ig"
      ],
      [
        "c",
        "itizen"
      ],
      [
        "d",
        "ar"
      ],
      [
        "d",
        "oo"
      ],
      [
        "e",
        "vil"
      ],
      [
        "f",
        "ing"
      ],
      [
        "f",
        "ine"
      ],
      [
        "f",
        "ive"
      ],
      [
        "k",
        "er"
      ],
      [
        "m",
        "ut"
      ],
      [
        "s",
        "us"
      ],
      [
        "z",
        "en"
      ],
      [
        "in",
        "f"
      ],
      [
        "st",
        "re"
      ],
      [
        "no",
        "ise"
      ],
      [
        "se",
        "al"
      ],
      [
        "se",
        "cond"
      ],
      [
        "re",
        "ign"
      ],
      [
        "be",
        "cause"
      ],
      [
        "be",
        "hind"
      ],
      [
        "le",
        "ase"
      ],
      [
        "for",
        "bid"
      ],
      [
        "as",
        "sa"
      ],
      [
        "as",
        "ide"
      ],
      [
        "our",
        "selves"
      ],
      [
        "et",
        "er"
      ],
      [
        "so",
        "le"
      ],
      [
        "do",
        "g"
      ],
      [
        "pe",
        "st"
      ],
      [
        "lo",
        "ck"
      ],
      [
        "con",
        "demn"
      ],
      [
        "she",
        "pherd"
      ],
      [
        "bl",
        "ow"
      ],
      [
        "would",
        "st"
      ],
      [
        "let",
        "ter"
      ],
      [
        "let",
        "ters"
      ],
      [
        "bro",
        "ad"
      ],
      [
        "um",
        "ent"
      ],
      [
        "sp",
        "ort"
      ],
      [
        "speak",
        "s"
      ],
      [
        "mar",
        "ch"
      ],
      [
        "ign",
        "or"
      ],
      [
        "gr",
        "and"
      ],
      [
        "beg",
        "gar"
      ],
      [
        "Sir",
        "rah"
      ],
      [
        "show",
        "s"
      ],
      [
        "sent",
        "ence"
      ],
      [
        "sle",
        "w"
      ],
      [
        "need",
        "s"
      ],
      [
        "sen",
        "se"
      ],
      [
        "prison",
        "er"
      ],
      [
        "gen",
        "et"
      ],
      [
        "Eng",
        "lish"
      ],
      [
        "pos",
        "ition"
      ],
      [
        "anta",
        "genet"
      ],
      [
        "Whi",
        "le"
      ],
      [
        "Gre",
        "mio"
      ],
      [
        "obe",
        "y"
      ],
      [
        "cons",
        "cience"
      ],
      [
        "lad",
        "ies"
      ],
      [
        "Pl",
        "antagenet"
      ],
      [
        "liber",
        "ty"
      ],
      [
        "usur",
        "p"
      ],
      [
        "clou",
        "ds"
      ],
      [
        "Grum",
        "io"
      ],
      [
        "Pad",
        "ua"
      ],
      [
        "PAR",
        "IS"
      ],
      [
        ":",
        "'"
      ],
      [
        "D",
        "is"
      ],
      [
        "F",
        "ear"
      ],
      [
        "G",
        "aunt"
      ],
      [
        "M",
        "en"
      ],
      [
        "P",
        "ed"
      ],
      [
        "T",
        "oo"
      ],
      [
        "V",
        "er"
      ],
      [
        "a",
        "le"
      ],
      [
        "b",
        "ones"
      ],
      [
        "c",
        "ing"
      ],
      [
        "c",
        "ret"
      ],
      [
        "c",
        "ried"
      ],
      [
        "d",
        "ry"
      ],
      [
        "f",
        "at"
      ],
      [
        "h",
        "und"
      ],
      [
        "k",
        "in"
      ],
      [
        "l",
        "p"
      ],
      [
        "u",
        "al"
      ],
      [
        "v",
        "ain"
      ],
      [
        "w",
        "alk"
      ],
      [
        "y",
        "ond"
      ],
      [
        "en",
        "ess"
      ],
      [
        "at",
        "ors"
      ],
      [
        "st",
        "one"
      ],
      [
        "st",
        "op"
      ],
      [
        "se",
        "ver"
      ],
      [
        "se",
        "cret"
      ],
      [
        "ve",
        "y"
      ],
      [
        "it",
        "ies"
      ],
      [
        "le",
        "a"
      ],
      [
        "not",
        "e"
      ],
      [
        "fe",
        "w"
      ],
      [
        "id",
        "er"
      ],
      [
        "man",
        "ner"
      ],
      [
        "con",
        "ce"
      ],
      [
        "Th",
        "ink"
      ],
      [
        "la",
        "id"
      ],
      [
        "il",
        "es"
      ],
      [
        "she",
        "d"
      ],
      [
        "pro",
        "sper"
      ],
      [
        "qu",
        "o"
      ],
      [
        "qu",
        "it"
      ],
      [
        "dis",
        "patch"
      ],
      [
        "fri",
        "ght"
      ],
      [
        "sp",
        "ur"
      ],
      [
        "pl",
        "ant"
      ],
      [
        "live",
        "d"
      ],
      [
        "PET",
        "ER"
      ],
      [
        "long",
        "er"
      ],
      [
        "ban",
        "ished"
      ],
      [
        "dr",
        "unk"
      ],
      [
        "gl",
        "ass"
      ],
      [
        "wom",
        "b"
      ],
      [
        "gold",
        "en"
      ],
      [
        "choo",
        "se"
      ],
      [
        "dam",
        "n"
      ],
      [
        "Ch",
        "ris"
      ],
      [
        "abo",
        "ve"
      ],
      [
        "vict",
        "ory"
      ],
      [
        "swi",
        "ft"
      ],
      [
        "mast",
        "ers"
      ],
      [
        "sland",
        "er"
      ],
      [
        "hund",
        "red"
      ],
      [
        "!",
        "--"
      ],
      [
        "C",
        "ould"
      ],
      [
        "C",
        "ates"
      ],
      [
        "D",
        "OR"
      ],
      [
        "E",
        "n"
      ],
      [
        "E",
        "arl"
      ],
      [
        "F",
        "ri"
      ],
      [
        "L",
        "AR"
      ],
      [
        "T",
        "IUS"
      ],
      [
        "W",
        "or"
      ],
      [
        "W",
        "IS"
      ],
      [
        "X",
        "I"
      ],
      [
        "a",
        "king"
      ],
      [
        "a",
        "il"
      ],
      [
        "d",
        "in"
      ],
      [
        "d",
        "ge"
      ],
      [
        "d",
        "rown"
      ],
      [
        "f",
        "ru"
      ],
      [
        "l",
        "ust"
      ],
      [
        "m",
        "oun"
      ],
      [
        "o",
        "t"
      ],
      [
        "p",
        "hy"
      ],
      [
        "s",
        "ca"
      ],
      [
        "u",
        "ri"
      ],
      [
        "u",
        "let"
      ],
      [
        "u",
        "ction"
      ],
      [
        "w",
        "ain"
      ],
      [
        "th",
        "reat"
      ],
      [
        "er",
        "le"
      ],
      [
        "in",
        "ius"
      ],
      [
        "an",
        "ces"
      ],
      [
        "en",
        "counter"
      ],
      [
        "to",
        "l"
      ],
      [
        "ha",
        "p"
      ],
      [
        "be",
        "ars"
      ],
      [
        "wi",
        "ce"
      ],
      [
        "for",
        "got"
      ],
      [
        "as",
        "ion"
      ],
      [
        "nd",
        "er"
      ],
      [
        "li",
        "est"
      ],
      [
        "we",
        "ary"
      ],
      [
        "your",
        "selves"
      ],
      [
        "ad",
        "d"
      ],
      [
        "ur",
        "es"
      ],
      [
        "ho",
        "st"
      ],
      [
        "AR",
        "IEL"
      ],
      [
        "sha",
        "dow"
      ],
      [
        "ard",
        "en"
      ],
      [
        "ue",
        "l"
      ],
      [
        "la",
        "bour"
      ],
      [
        "il",
        "t"
      ],
      [
        "ven",
        "ge"
      ],
      [
        "ul",
        "ar"
      ],
      [
        "know",
        "ledge"
      ],
      [
        "pro",
        "of"
      ],
      [
        "qu",
        "ite"
      ],
      [
        "ol",
        "er"
      ],
      [
        "wo",
        "es"
      ],
      [
        "des",
        "pair"
      ],
      [
        "des",
        "perate"
      ],
      [
        "ex",
        "c"
      ],
      [
        "br",
        "ay"
      ],
      [
        "LE",
        "WIS"
      ],
      [
        "pre",
        "cious"
      ],
      [
        "ef",
        "fect"
      ],
      [
        "pri",
        "de"
      ],
      [
        "Citizen",
        "s"
      ],
      [
        "lords",
        "hip"
      ],
      [
        "Un",
        "to"
      ],
      [
        "ste",
        "el"
      ],
      [
        "dou",
        "ble"
      ],
      [
        "gl",
        "ory"
      ],
      [
        "kne",
        "es"
      ],
      [
        "enter",
        "tain"
      ],
      [
        "bles",
        "sed"
      ],
      [
        "toward",
        "s"
      ],
      [
        "Cap",
        "ulet"
      ],
      [
        "kins",
        "man"
      ],
      [
        "Watch",
        "man"
      ],
      [
        "citizen",
        "s"
      ],
      [
        "Cates",
        "by"
      ],
      [
        "LAR",
        "TIUS"
      ],
      [
        ";",
        "'"
      ],
      [
        "A",
        "b"
      ],
      [
        "A",
        "d"
      ],
      [
        "A",
        "um"
      ],
      [
        "B",
        "ro"
      ],
      [
        "M",
        "P"
      ],
      [
        "M",
        "ow"
      ],
      [
        "P",
        "ardon"
      ],
      [
        "R",
        "TIS"
      ],
      [
        "a",
        "live"
      ],
      [
        "b",
        "en"
      ],
      [
        "b",
        "astard"
      ],
      [
        "d",
        "ance"
      ],
      [
        "f",
        "ought"
      ],
      [
        "g",
        "rown"
      ],
      [
        "g",
        "ment"
      ],
      [
        "h",
        "n"
      ],
      [
        "m",
        "our"
      ],
      [
        "m",
        "end"
      ],
      [
        "m",
        "oney"
      ],
      [
        "p",
        "or"
      ],
      [
        "p",
        "es"
      ],
      [
        "s",
        "our"
      ],
      [
        "s",
        "choo"
      ],
      [
        "u",
        "de"
      ],
      [
        "w",
        "ench"
      ],
      [
        "in",
        "king"
      ],
      [
        "en",
        "joy"
      ],
      [
        "ar",
        "my"
      ],
      [
        "at",
        "ed"
      ],
      [
        "me",
        "thinks"
      ],
      [
        "se",
        "ven"
      ],
      [
        "ha",
        "ir"
      ],
      [
        "re",
        "main"
      ],
      [
        "it",
        "ors"
      ],
      [
        "hi",
        "re"
      ],
      [
        "ir",
        "es"
      ],
      [
        "de",
        "ter"
      ],
      [
        "ke",
        "pt"
      ],
      [
        "ad",
        "s"
      ],
      [
        "all",
        "ow"
      ],
      [
        "un",
        "ts"
      ],
      [
        "are",
        "st"
      ],
      [
        "sha",
        "ke"
      ],
      [
        "ne",
        "igh"
      ],
      [
        "con",
        "tr"
      ],
      [
        "ta",
        "ble"
      ],
      [
        "go",
        "ing"
      ],
      [
        "pro",
        "claim"
      ],
      [
        "ound",
        "s"
      ],
      [
        "sp",
        "ent"
      ],
      [
        "si",
        "m"
      ],
      [
        "With",
        "in"
      ],
      [
        "str",
        "uck"
      ],
      [
        "honour",
        "s"
      ],
      [
        "pre",
        "par"
      ],
      [
        "ation",
        "s"
      ],
      [
        "fl",
        "owers"
      ],
      [
        "dead",
        "ly"
      ],
      [
        "cl",
        "am"
      ],
      [
        "gu",
        "ess"
      ],
      [
        "under",
        "stand"
      ],
      [
        "ste",
        "al"
      ],
      [
        "gue",
        "st"
      ],
      [
        "CU",
        "RTIS"
      ],
      [
        "fool",
        "ish"
      ],
      [
        "prom",
        "ised"
      ],
      [
        "Jo",
        "hn"
      ],
      [
        "au",
        "thor"
      ],
      [
        "wret",
        "ched"
      ],
      [
        "SA",
        "MP"
      ],
      [
        "wh",
        "ite"
      ],
      [
        "chee",
        "ks"
      ],
      [
        "fir",
        "m"
      ],
      [
        "Ke",
        "eper"
      ],
      [
        "Fa",
        "ith"
      ],
      [
        "doo",
        "m"
      ],
      [
        "Ped",
        "ant"
      ],
      [
        "quo",
        "th"
      ],
      [
        "Aum",
        "erle"
      ],
      [
        "Mow",
        "bray"
      ],
      [
        "SAMP",
        "SON"
      ],
      [
        ":",
        "--"
      ],
      [
        "A",
        "po"
      ],
      [
        "B",
        "U"
      ],
      [
        "E",
        "X"
      ],
      [
        "E",
        "ither"
      ],
      [
        "H",
        "ear"
      ],
      [
        "I",
        "GON"
      ],
      [
        "M",
        "ine"
      ],
      [
        "P",
        "ut"
      ],
      [
        "b",
        "end"
      ],
      [
        "c",
        "ir"
      ],
      [
        "d",
        "ain"
      ],
      [
        "d",
        "ue"
      ],
      [
        "f",
        "fi"
      ],
      [
        "h",
        "u"
      ],
      [
        "r",
        "ise"
      ],
      [
        "s",
        "y"
      ],
      [
        "v",
        "ate"
      ],
      [
        "y",
        "al"
      ],
      [
        "in",
        "j"
      ],
      [
        "or",
        "ious"
      ],
      [
        "ar",
        "ing"
      ],
      [
        "ar",
        "ri"
      ],
      [
        "st",
        "ro"
      ],
      [
        "st",
        "ars"
      ],
      [
        "he",
        "alth"
      ],
      [
        "se",
        "iz"
      ],
      [
        "le",
        "st"
      ],
      [
        "ro",
        "t"
      ],
      [
        "de",
        "put"
      ],
      [
        "et",
        "s"
      ],
      [
        "do",
        "or"
      ],
      [
        "fe",
        "ll"
      ],
      [
        "ti",
        "de"
      ],
      [
        "am",
        "ong"
      ],
      [
        "ne",
        "y"
      ],
      [
        "ne",
        "st"
      ],
      [
        "su",
        "pp"
      ],
      [
        "her",
        "self"
      ],
      [
        "te",
        "en"
      ],
      [
        "te",
        "ach"
      ],
[...]
